/* Copyright 2020 The TensorFlow Authors. All Rights Reserved.

Licensed under the Apache License, Version 2.0 (the "License");
you may not use this file except in compliance with the License.
You may obtain a copy of the License at

    http://www.apache.org/licenses/LICENSE-2.0

Unless required by applicable law or agreed to in writing, software
distributed under the License is distributed on an "AS IS" BASIS,
WITHOUT WARRANTIES OR CONDITIONS OF ANY KIND, either express or implied.
See the License for the specific language governing permissions and
limitations under the License.
==============================================================================*/

// This is a standard TensorFlow Lite FlatBuffer model file that has been
// converted into a C data array, so it can be easily compiled into a binary
// for devices that don't have a file system. It was created using the command:
// xxd -i model.tflite > model.cc

#include "micro_features_model.h"

// We need to keep the data array aligned on some architectures.
#ifdef __has_attribute
#define HAVE_ATTRIBUTE(x) __has_attribute(x)
#else
#define HAVE_ATTRIBUTE(x) 0
#endif
#if HAVE_ATTRIBUTE(aligned) || (defined(__GNUC__) && !defined(__clang__))
#define DATA_ALIGN_ATTRIBUTE __attribute__((aligned(4)))
#else
#define DATA_ALIGN_ATTRIBUTE
#endif

const unsigned char g_model[] DATA_ALIGN_ATTRIBUTE = {
  0x1c, 0x00, 0x00, 0x00, 0x54, 0x46, 0x4c, 0x33, 0x00, 0x00, 0x12, 0x00,
  0x1c, 0x00, 0x18, 0x00, 0x14, 0x00, 0x10, 0x00, 0x0c, 0x00, 0x08, 0x00,
  0x00, 0x00, 0x04, 0x00, 0x12, 0x00, 0x00, 0x00, 0x18, 0x00, 0x00, 0x00,
  0x48, 0x00, 0x00, 0x00, 0x80, 0x13, 0x00, 0x00, 0x90, 0x13, 0x00, 0x00,
  0xc8, 0x25, 0x00, 0x00, 0x03, 0x00, 0x00, 0x00, 0x01, 0x00, 0x00, 0x00,
  0x0c, 0x00, 0x00, 0x00, 0x08, 0x00, 0x0c, 0x00, 0x08, 0x00, 0x04, 0x00,
  0x08, 0x00, 0x00, 0x00, 0x17, 0x00, 0x00, 0x00, 0x04, 0x00, 0x00, 0x00,
  0x13, 0x00, 0x00, 0x00, 0x6d, 0x69, 0x6e, 0x5f, 0x72, 0x75, 0x6e, 0x74,
  0x69, 0x6d, 0x65, 0x5f, 0x76, 0x65, 0x72, 0x73, 0x69, 0x6f, 0x6e, 0x00,
  0x18, 0x00, 0x00, 0x00, 0x34, 0x13, 0x00, 0x00, 0x2c, 0x13, 0x00, 0x00,
  0xfc, 0x12, 0x00, 0x00, 0xc4, 0x12, 0x00, 0x00, 0xa4, 0x12, 0x00, 0x00,
  0x8c, 0x12, 0x00, 0x00, 0x74, 0x12, 0x00, 0x00, 0x5c, 0x12, 0x00, 0x00,
  0x44, 0x12, 0x00, 0x00, 0x2c, 0x12, 0x00, 0x00, 0x1c, 0x03, 0x00, 0x00,
  0xc4, 0x02, 0x00, 0x00, 0x74, 0x00, 0x00, 0x00, 0x6c, 0x00, 0x00, 0x00,
  0x64, 0x00, 0x00, 0x00, 0x5c, 0x00, 0x00, 0x00, 0x54, 0x00, 0x00, 0x00,
  0x4c, 0x00, 0x00, 0x00, 0x44, 0x00, 0x00, 0x00, 0x3c, 0x00, 0x00, 0x00,
  0x34, 0x00, 0x00, 0x00, 0x2c, 0x00, 0x00, 0x00, 0x24, 0x00, 0x00, 0x00,
  0x04, 0x00, 0x00, 0x00, 0x62, 0xed, 0xff, 0xff, 0x04, 0x00, 0x00, 0x00,
  0x10, 0x00, 0x00, 0x00, 0x31, 0x2e, 0x35, 0x2e, 0x30, 0x00, 0x00, 0x00,
  0x00, 0x00, 0x00, 0x00, 0x00, 0x00, 0x00, 0x00, 0x00, 0xde, 0xff, 0xff,
  0x04, 0xde, 0xff, 0xff, 0x08, 0xde, 0xff, 0xff, 0x0c, 0xde, 0xff, 0xff,
  0x10, 0xde, 0xff, 0xff, 0x14, 0xde, 0xff, 0xff, 0x18, 0xde, 0xff, 0xff,
  0x1c, 0xde, 0xff, 0xff, 0x20, 0xde, 0xff, 0xff, 0x24, 0xde, 0xff, 0xff,
  0xa6, 0xed, 0xff, 0xff, 0x04, 0x00, 0x00, 0x00, 0x40, 0x02, 0x00, 0x00,
  0xac, 0xe8, 0x59, 0xce, 0x34, 0x63, 0xc2, 0x54, 0x91, 0x27, 0xa7, 0x12,
  0xb5, 0x19, 0x67, 0x32, 0xd5, 0xc3, 0xb6, 0x20, 0x4d, 0x27, 0xbf, 0x4a,
  0x3a, 0xbc, 0xca, 0x94, 0x52, 0xc2, 0x63, 0xd6, 0x44, 0x4c, 0x09, 0x81,
  0x35, 0x23, 0x1c, 0x43, 0xcb, 0x18, 0x1d, 0x43, 0xd6, 0x65, 0x06, 0xeb,
  0xf7, 0xa0, 0xd0, 0xe5, 0x33, 0xc1, 0x5d, 0x03, 0xb7, 0xd3, 0x20, 0xd4,
  0x5b, 0xd9, 0x55, 0x8a, 0x5e, 0xa1, 0x7b, 0xff, 0x34, 0x99, 0xe3, 0xaa,
  0xdb, 0xcf, 0x6d, 0x5b, 0xd3, 0x31, 0x29, 0x0c, 0xc7, 0x88, 0xab, 0x9c,
  0x04, 0x2a, 0x4c, 0xd8, 0x3c, 0xbe, 0x54, 0xcb, 0xbd, 0x7f, 0x21, 0xd8,
  0xb6, 0xb9, 0x44, 0xda, 0x2e, 0xf5, 0xe9, 0x66, 0x60, 0x39, 0x4f, 0x47,
  0x66, 0xef, 0x34, 0xc9, 0xed, 0x6e, 0xd1, 0x88, 0x5b, 0x67, 0xba, 0x30,
  0xf5, 0xc9, 0x9f, 0xde, 0xc8, 0xb7, 0xfd, 0x36, 0x62, 0xed, 0x09, 0xc8,
  0xde, 0x62, 0x2d, 0x2a, 0x12, 0xf0, 0x12, 0x09, 0x0e, 0x5f, 0x19, 0xbb,
  0xd5, 0x15, 0x33, 0x81, 0x03, 0xfb, 0x64, 0xbe, 0x14, 0x75, 0xfc, 0x0f,
  0x18, 0x5e, 0x9c, 0x3f, 0xc7, 0x9f, 0xb3, 0x38, 0xbb, 0x23, 0x5c, 0x19,
  0xb4, 0x39, 0x74, 0xa8, 0x2d, 0x0a, 0x2d, 0xe8, 0xa7, 0x07, 0xea, 0x1e,
  0xa1, 0xed, 0x03, 0x62, 0xde, 0xad, 0x50, 0xa1, 0xe2, 0xfe, 0xbf, 0x1a,
  0x0a, 0x07, 0x37, 0xc7, 0x53, 0x90, 0x19, 0x0b, 0x9e, 0x0b, 0x3f, 0xdc,
  0xd2, 0x0b, 0x09, 0x2b, 0xbb, 0x35, 0x56, 0x41, 0x0f, 0x3c, 0x31, 0xa0,
  0x16, 0xa4, 0xd5, 0xdf, 0x16, 0x38, 0xed, 0xbd, 0xf0, 0xa9, 0x39, 0x0e,
  0x51, 0x7f, 0x00, 0x1d, 0x9b, 0x5a, 0x8e, 0x69, 0x64, 0xee, 0x29, 0x05,
  0xe1, 0x33, 0xec, 0x1a, 0x04, 0x9a, 0xff, 0xbd, 0x17, 0x3a, 0xa9, 0xec,
  0x0c, 0x50, 0x79, 0xaa, 0x55, 0x19, 0x9f, 0x57, 0x5f, 0xb6, 0x0d, 0xe0,
  0x83, 0x3d, 0x27, 0x24, 0xde, 0x16, 0x0e, 0x96, 0xb3, 0x9d, 0xa5, 0x8e,
  0x34, 0xae, 0x4b, 0xc8, 0xa9, 0x47, 0xd5, 0x2a, 0xa4, 0x0c, 0x54, 0x39,
  0x32, 0x76, 0x3d, 0xd0, 0xb8, 0xcd, 0xda, 0x77, 0x3d, 0xd3, 0x66, 0x5f,
  0xae, 0xf0, 0x04, 0xa8, 0x20, 0x1b, 0xd5, 0xa7, 0xda, 0x09, 0x9a, 0x50,
  0xa5, 0x14, 0xd7, 0x0a, 0x89, 0x9d, 0x64, 0x12, 0x26, 0x29, 0x59, 0x37,
  0x9d, 0x20, 0x67, 0x81, 0xfe, 0xaf, 0xf5, 0xde, 0x32, 0x25, 0x4e, 0xc8,
  0x5a, 0x47, 0xb4, 0xb3, 0xd4, 0x8c, 0x3a, 0x38, 0x0f, 0x34, 0x53, 0xe8,
  0x46, 0xf4, 0x4e, 0x14, 0x27, 0x2f, 0xad, 0x5a, 0x59, 0x3d, 0x05, 0x1a,
  0xb3, 0x49, 0x92, 0x75, 0xc2, 0x54, 0x40, 0x82, 0x5a, 0xab, 0xd7, 0x3a,
  0xce, 0x37, 0xc0, 0x81, 0x0d, 0x28, 0x05, 0x06, 0x09, 0x3b, 0x65, 0x9f,
  0xd5, 0x31, 0xa6, 0x3b, 0x34, 0x5b, 0x3d, 0x44, 0xe9, 0x5c, 0xfa, 0xf8,
  0x58, 0xe4, 0xb1, 0x15, 0xb9, 0x15, 0x1e, 0xcb, 0x26, 0x2c, 0xfc, 0xa7,
  0x3f, 0xec, 0x04, 0x72, 0x41, 0xe1, 0xf9, 0x50, 0x68, 0xb4, 0x31, 0x37,
  0x96, 0xd6, 0xb3, 0xa9, 0x4e, 0xa1, 0xbb, 0x0a, 0xfe, 0x01, 0x6c, 0x99,
  0x27, 0x1d, 0xaf, 0x23, 0x17, 0x03, 0x23, 0x5a, 0x4c, 0x3c, 0x46, 0x4c,
  0x81, 0x51, 0x15, 0xaa, 0x8d, 0xe0, 0x8f, 0x26, 0x9c, 0xd3, 0xbc, 0x5c,
  0xba, 0x4e, 0x29, 0x7d, 0xa5, 0x36, 0xfd, 0x06, 0x20, 0xce, 0xb9, 0x43,
  0xe6, 0x4f, 0x51, 0x48, 0x1a, 0x2d, 0x1a, 0x6f, 0xa4, 0x72, 0x0d, 0xec,
  0xff, 0xb6, 0xd4, 0xb2, 0x89, 0xb4, 0x4d, 0x79, 0xcc, 0x17, 0xe1, 0x60,
  0x17, 0x22, 0x94, 0x14, 0xf8, 0x71, 0x96, 0x44, 0xc3, 0x44, 0xe5, 0x70,
  0x64, 0xcd, 0x01, 0xcd, 0x00, 0x35, 0x38, 0x46, 0x4c, 0x94, 0x32, 0xe7,
  0xba, 0xa4, 0x21, 0xef, 0xe9, 0x11, 0x72, 0xc2, 0x7f, 0x3a, 0x26, 0xe3,
  0x05, 0x5f, 0xcd, 0xbc, 0x4e, 0x3d, 0x20, 0xfa, 0x4f, 0xcd, 0xf9, 0x9c,
  0x7c, 0xd5, 0xd1, 0x17, 0xcf, 0xa5, 0x50, 0x3c, 0xaa, 0xbe, 0xcc, 0x26,
  0xcc, 0x24, 0xdd, 0x9a, 0x5b, 0x43, 0x65, 0xb3, 0x93, 0xc5, 0x5f, 0x28,
  0x67, 0x5e, 0x02, 0xd0, 0x59, 0xb5, 0x0c, 0xa3, 0x02, 0xea, 0xd0, 0xc3,
  0xf2, 0xef, 0xff, 0xff, 0x04, 0x00, 0x00, 0x00, 0x48, 0x00, 0x00, 0x00,
  0xea, 0x93, 0xa9, 0xa9, 0xfd, 0xb5, 0x56, 0x9f, 0x7f, 0xf9, 0x99, 0x5d,
  0x0d, 0xb1, 0x7f, 0x85, 0x52, 0xae, 0x12, 0x67, 0x81, 0x99, 0x57, 0x0d,
  0x26, 0xb6, 0x9a, 0x87, 0xbb, 0x4a, 0x29, 0xba, 0x3b, 0x85, 0x7f, 0x43,
  0xe8, 0x79, 0xe9, 0x60, 0xce, 0xe8, 0x55, 0x03, 0x81, 0x20, 0x71, 0xd3,
  0xf3, 0x7f, 0x53, 0xe8, 0x54, 0x75, 0x5b, 0xe4, 0x4b, 0x7f, 0x51, 0xef,
  0xe1, 0xfd, 0x23, 0xdd, 0x81, 0x67, 0xe4, 0x86, 0x9c, 0x04, 0x6f, 0xaa,
  0x46, 0xf0, 0xff, 0xff, 0x04, 0x00, 0x00, 0x00, 0x00, 0x0f, 0x00, 0x00,
  0xfe, 0x28, 0xc3, 0xa9, 0x19, 0xd7, 0x05, 0x09, 0xe1, 0xe3, 0x3e, 0xe6,
  0x2f, 0xdd, 0x20, 0xdb, 0xe1, 0x0b, 0x0c, 0xfe, 0xff, 0xc7, 0x45, 0xe9,
  0x19, 0xc3, 0x3e, 0xbb, 0x07, 0xba, 0x1e, 0x54, 0x8e, 0x07, 0x48, 0x8c,
  0x46, 0x0c, 0x4a, 0x17, 0xb8, 0xb9, 0x2c, 0xdf, 0x36, 0x00, 0xe7, 0xf5,
  0xdb, 0xbf, 0x57, 0x93, 0x05, 0xb1, 0xd4, 0x1e, 0x04, 0x24, 0x01, 0xcf,
  0x25, 0xe4, 0xb0, 0x2e, 0x1a, 0x19, 0x38, 0xc4, 0x16, 0x0f, 0xd4, 0x35,
  0xe4, 0xee, 0x46, 0x08, 0xbe, 0x22, 0x5a, 0x0c, 0x45, 0xf7, 0x3d, 0xc5,
  0x10, 0xb1, 0xfe, 0x13, 0x0b, 0xf9, 0xd0, 0xfc, 0xee, 0x1b, 0xd5, 0xbf,
  0x3a, 0x20, 0xe7, 0xf1, 0x0f, 0x5f, 0x53, 0xdc, 0xfa, 0xda, 0xfb, 0x11,
  0xe5, 0x60, 0xf2, 0xfd, 0xec, 0xc0, 0x3e, 0xf2, 0x18, 0xfd, 0x0f, 0x2a,
  0x22, 0x08, 0x68, 0xf0, 0xea, 0x06, 0x41, 0xe2, 0xc1, 0x39, 0x35, 0xed,
  0x1e, 0x05, 0x08, 0xc3, 0xfb, 0x2d, 0x0c, 0x04, 0xd6, 0x66, 0xd4, 0x19,
  0x2e, 0xd7, 0xfb, 0x2b, 0x29, 0x4c, 0xf5, 0x43, 0x12, 0xf2, 0xe7, 0x04,
  0xf1, 0x11, 0x02, 0x17, 0x04, 0x17, 0xff, 0xd8, 0x24, 0xcf, 0xe8, 0x0c,
  0x20, 0x15, 0xc3, 0xfe, 0xca, 0xfb, 0xb5, 0x2e, 0x32, 0x18, 0x15, 0xe6,
  0xf5, 0x06, 0xe6, 0xe8, 0x01, 0x38, 0x3e, 0xe8, 0x24, 0x63, 0x02, 0x0a,
  0xad, 0x0a, 0xf5, 0x33, 0x6d, 0x08, 0xf0, 0x20, 0x11, 0x13, 0xf3, 0x2a,
  0x2a, 0x30, 0xf6, 0x03, 0xfe, 0x1d, 0x27, 0xf4, 0x2f, 0x56, 0x3f, 0x27,
  0x18, 0x23, 0x1d, 0x16, 0x16, 0x31, 0x2f, 0x28, 0xcd, 0x13, 0xeb, 0x49,
  0xd3, 0xe0, 0x0a, 0x26, 0x19, 0xc1, 0xcb, 0x47, 0x2e, 0x1d, 0xfe, 0xdd,
  0x43, 0x30, 0xbd, 0x13, 0xcf, 0x09, 0x03, 0x35, 0xd3, 0xf0, 0x1c, 0x05,
  0xf5, 0xf9, 0xdf, 0xd4, 0xb3, 0x05, 0x04, 0xca, 0x0f, 0x2b, 0x2e, 0x0a,
  0xe4, 0xec, 0xbe, 0xa5, 0x1e, 0xee, 0x51, 0xb4, 0x0d, 0xd8, 0x04, 0x03,
  0xea, 0x27, 0x0e, 0xee, 0x0c, 0x07, 0x13, 0x03, 0x48, 0x12, 0x2d, 0xbf,
  0x32, 0x4d, 0xe4, 0xf3, 0x12, 0x18, 0xdb, 0x1e, 0xff, 0x0e, 0x22, 0xf0,
  0x09, 0x29, 0x03, 0x18, 0xe5, 0x11, 0x09, 0x44, 0x40, 0x29, 0xdc, 0x2b,
  0xeb, 0x0a, 0x46, 0x29, 0x2e, 0x48, 0x61, 0x02, 0x36, 0x03, 0xcd, 0xda,
  0xb8, 0xd4, 0xcc, 0x23, 0xe1, 0x10, 0xac, 0x04, 0x2a, 0xe6, 0xf6, 0x21,
  0xbd, 0xca, 0x0a, 0xd0, 0x3c, 0x13, 0x3b, 0xcc, 0x05, 0xf1, 0xe8, 0x18,
  0x4c, 0xff, 0x47, 0xf0, 0x24, 0xe5, 0xcc, 0x4b, 0xf5, 0x01, 0xe5, 0x0b,
  0x12, 0xad, 0x16, 0x00, 0x34, 0x0e, 0x07, 0x34, 0x21, 0xe6, 0xba, 0xd4,
  0x4c, 0xe8, 0x42, 0xc0, 0x35, 0xe4, 0x1c, 0x01, 0x2d, 0x1c, 0x30, 0xed,
  0x45, 0x14, 0xb6, 0x07, 0xfc, 0x39, 0x13, 0x2b, 0xda, 0xe2, 0xc5, 0x10,
  0xf2, 0xf3, 0x74, 0xcf, 0x28, 0xd1, 0xf1, 0x49, 0x2e, 0x16, 0xe7, 0x50,
  0xf7, 0xd4, 0x16, 0xd4, 0x29, 0x28, 0xd2, 0x05, 0x07, 0xd9, 0xb6, 0x39,
  0xcd, 0x01, 0x2e, 0xef, 0x0c, 0xf8, 0x00, 0xd3, 0x33, 0xec, 0x3a, 0xde,
  0x33, 0x4c, 0xaa, 0xd8, 0x03, 0xe1, 0xe2, 0xf4, 0xd3, 0x31, 0xd7, 0xd8,
  0x27, 0x2e, 0x4e, 0xee, 0xd1, 0xbf, 0xb6, 0xfb, 0x4f, 0x4d, 0x3c, 0xcb,
  0x1b, 0xfb, 0x23, 0x21, 0xe9, 0x27, 0x32, 0xe7, 0xe6, 0xfb, 0x33, 0xfe,
  0x1e, 0x35, 0x06, 0xb2, 0xc0, 0x18, 0xec, 0xf9, 0x1e, 0x50, 0xf1, 0xad,
  0x30, 0x2a, 0xee, 0x22, 0x0d, 0xb6, 0xf7, 0x2a, 0xf9, 0x10, 0xed, 0xc6,
  0x11, 0xf8, 0x06, 0xf2, 0x24, 0x15, 0xe9, 0xc6, 0xda, 0x26, 0x13, 0x05,
  0xf8, 0xfd, 0x1a, 0x0d, 0x31, 0x37, 0x33, 0x1c, 0x22, 0xe0, 0xcd, 0xf3,
  0x19, 0x2f, 0x27, 0xf2, 0xdc, 0x07, 0x2e, 0xe5, 0xdc, 0x39, 0x25, 0xbe,
  0xc8, 0x11, 0xaf, 0x17, 0x06, 0x1a, 0x36, 0x0c, 0xec, 0x4c, 0xf4, 0xed,
  0xdb, 0x0a, 0x04, 0x29, 0x3f, 0xd1, 0x26, 0x0f, 0xfc, 0xe0, 0xce, 0xd5,
  0x0d, 0x16, 0x52, 0xcd, 0x1f, 0x1a, 0x3f, 0xad, 0xff, 0xc0, 0x1a, 0x0a,
  0xf5, 0xfd, 0xdc, 0x4e, 0x21, 0xf0, 0xf4, 0xd4, 0xf4, 0xef, 0xbf, 0x19,
  0x08, 0xd0, 0xc6, 0x31, 0xda, 0x19, 0x1d, 0x07, 0xd7, 0xee, 0xf3, 0xd0,
  0xf1, 0x26, 0xf0, 0xd4, 0x03, 0x1d, 0xd2, 0xe1, 0x28, 0x3d, 0xef, 0x10,
  0x13, 0x34, 0x09, 0x29, 0x14, 0x49, 0xe2, 0x1f, 0x26, 0xc2, 0xc8, 0x19,
  0xde, 0x06, 0x0e, 0x12, 0xd1, 0xd4, 0x0b, 0xf3, 0x0b, 0xe7, 0x00, 0x3c,
  0x1c, 0x27, 0xc9, 0xed, 0x20, 0xea, 0x20, 0x37, 0x2f, 0xf3, 0x1f, 0x0c,
  0x38, 0x4e, 0xf7, 0x15, 0x49, 0xc7, 0x0f, 0xd2, 0x14, 0x9d, 0xbf, 0x07,
  0xe9, 0xeb, 0xee, 0xed, 0x33, 0xf8, 0xe8, 0xdb, 0x32, 0xe7, 0x29, 0xda,
  0x1c, 0x02, 0xc8, 0x10, 0xfc, 0xec, 0xc4, 0xff, 0xdd, 0x4a, 0x0e, 0xc5,
  0x01, 0x2c, 0xeb, 0x02, 0x11, 0x48, 0xad, 0x27, 0x4e, 0x0b, 0x2e, 0x07,
  0xe2, 0xfd, 0x02, 0x33, 0x30, 0x2d, 0xd9, 0xe2, 0xd3, 0xf4, 0x08, 0x2b,
  0xec, 0x1b, 0x2b, 0xfd, 0x2c, 0xef, 0xda, 0x14, 0x40, 0xea, 0xd6, 0xf1,
  0x1b, 0x3d, 0xc5, 0xfa, 0xf0, 0xbd, 0x30, 0xfb, 0xcf, 0xc3, 0xf0, 0xc3,
  0x4c, 0xd5, 0xd1, 0x08, 0xe9, 0xb3, 0xff, 0x20, 0xec, 0xd1, 0xf3, 0xe1,
  0x31, 0xe4, 0xef, 0xcf, 0x0b, 0x02, 0x30, 0xfc, 0x01, 0xb1, 0x27, 0x00,
  0x13, 0x13, 0xee, 0x0e, 0xda, 0x03, 0x17, 0xd0, 0xce, 0xe7, 0x04, 0xc5,
  0x08, 0x09, 0xbf, 0x31, 0xfd, 0xd2, 0x1c, 0x3c, 0xc9, 0x24, 0xe7, 0x0b,
  0xc1, 0x06, 0xe4, 0x0d, 0xc3, 0xca, 0x16, 0xef, 0x44, 0x19, 0xd1, 0xd6,
  0xc8, 0xd4, 0xca, 0xbe, 0xf2, 0xe9, 0xc1, 0x24, 0xfe, 0xd4, 0xf6, 0xf4,
  0xdd, 0x16, 0xc4, 0x4b, 0xd9, 0xf5, 0x1d, 0x0c, 0xec, 0xef, 0xe7, 0xde,
  0xd7, 0xb7, 0xe5, 0x25, 0xdb, 0x12, 0xd0, 0xbf, 0x1d, 0x04, 0x0a, 0x3e,
  0xfc, 0x0e, 0xf7, 0xd3, 0x03, 0x07, 0xe8, 0x08, 0x18, 0x21, 0x07, 0x14,
  0x40, 0xd2, 0xf8, 0xd0, 0xd3, 0x0e, 0x39, 0x31, 0xcc, 0x38, 0x05, 0x15,
  0xdf, 0x23, 0xc2, 0x44, 0x10, 0x09, 0x27, 0x50, 0xff, 0x21, 0xf5, 0xd1,
  0xf5, 0x13, 0xa9, 0x07, 0x17, 0x13, 0xcd, 0xce, 0x2c, 0x36, 0xcf, 0xda,
  0xe4, 0x37, 0xb8, 0xd8, 0xde, 0xd8, 0xce, 0x2a, 0x24, 0xec, 0xf0, 0x59,
  0xe9, 0x02, 0x36, 0xc1, 0x2a, 0xd6, 0x9e, 0xf1, 0xfe, 0xd5, 0xd5, 0x23,
  0x33, 0x25, 0x24, 0x32, 0xca, 0x0d, 0xe3, 0x59, 0x20, 0x37, 0xe4, 0x51,
  0xd7, 0x12, 0xf4, 0x3f, 0xfe, 0x3d, 0xf8, 0x0e, 0xd3, 0x3f, 0xe2, 0xee,
  0x2d, 0x60, 0x50, 0x39, 0xd1, 0x2a, 0xf6, 0x4e, 0x59, 0xec, 0xe1, 0x03,
  0x11, 0x10, 0x05, 0x56, 0xe1, 0xf6, 0x13, 0x40, 0xc9, 0x2f, 0xfd, 0xe9,
  0xe8, 0x17, 0x38, 0x43, 0xd1, 0x45, 0x1c, 0x16, 0x08, 0x59, 0x2e, 0x39,
  0xcf, 0x29, 0xf9, 0x4a, 0xf7, 0xfa, 0xd0, 0x3c, 0xcd, 0x41, 0x19, 0x00,
  0x60, 0x49, 0xd0, 0x1b, 0x0d, 0xfa, 0xfa, 0x69, 0x0d, 0x30, 0x52, 0x14,
  0xf7, 0xd4, 0xde, 0xe3, 0x0f, 0xe8, 0x50, 0x01, 0x14, 0xd0, 0xd1, 0x18,
  0x2e, 0xd1, 0x63, 0xb6, 0xbd, 0x99, 0x8c, 0xec, 0x02, 0xdd, 0x00, 0xc0,
  0x06, 0xb7, 0x88, 0xf7, 0x0a, 0xed, 0x4c, 0xd3, 0xfe, 0x28, 0xb0, 0x47,
  0xcf, 0x28, 0x5a, 0xd0, 0xc9, 0xe7, 0x0c, 0x03, 0xe2, 0x26, 0x2f, 0x29,
  0xdf, 0xdb, 0xe6, 0x10, 0x15, 0xed, 0x47, 0x26, 0xe0, 0xb6, 0x9e, 0x29,
  0xd7, 0x38, 0x4f, 0x49, 0x01, 0x06, 0x20, 0xba, 0x6e, 0xc3, 0x27, 0xc6,
  0xcc, 0xa4, 0xba, 0x41, 0x17, 0x2a, 0xf7, 0xb1, 0x3b, 0x11, 0xdf, 0xb0,
  0xf4, 0xc6, 0xed, 0x0f, 0x43, 0xdf, 0xf0, 0xef, 0x0a, 0xbc, 0x31, 0xcc,
  0xe8, 0x32, 0xba, 0xd7, 0x3e, 0xc3, 0xdb, 0xd5, 0x28, 0x34, 0xe4, 0x08,
  0x2a, 0xec, 0x30, 0xc5, 0x28, 0xbc, 0x08, 0x36, 0x29, 0xec, 0x0f, 0xf6,
  0x05, 0xd4, 0xb4, 0xf0, 0x40, 0xea, 0xc1, 0xf0, 0x24, 0x36, 0xe4, 0x39,
  0xdd, 0x14, 0xa3, 0x3d, 0x34, 0x08, 0xe2, 0x40, 0xf0, 0x1e, 0x2a, 0x32,
  0x05, 0x17, 0x52, 0xdf, 0x3c, 0xc7, 0x3a, 0xbd, 0xbb, 0xe9, 0xba, 0x59,
  0x2e, 0xfd, 0xa1, 0xda, 0xb9, 0xca, 0xba, 0xcc, 0x02, 0x13, 0xf1, 0xd9,
  0xbc, 0x31, 0xc4, 0xdc, 0x1f, 0xe0, 0xf5, 0x32, 0x17, 0x17, 0xa6, 0x3e,
  0x0a, 0x08, 0xc3, 0xc7, 0x23, 0x02, 0xe8, 0x04, 0xf6, 0x13, 0xc9, 0x0e,
  0xe2, 0x0a, 0xfd, 0xe4, 0x20, 0x34, 0xba, 0xfb, 0xc4, 0x30, 0xf7, 0x4d,
  0xdf, 0x10, 0xb8, 0x3e, 0xcc, 0xc6, 0x16, 0x35, 0x52, 0x0e, 0x09, 0x25,
  0xef, 0xb7, 0x13, 0xd6, 0x38, 0xe3, 0xfd, 0x30, 0x0a, 0x2d, 0x41, 0xc8,
  0x03, 0xbe, 0xd2, 0xe4, 0xe7, 0x09, 0xec, 0x35, 0xed, 0x10, 0x1b, 0xe2,
  0xb8, 0xe1, 0xce, 0xd0, 0xdd, 0x17, 0xd9, 0xee, 0x97, 0xba, 0xc3, 0xc2,
  0x23, 0xf3, 0xeb, 0xc7, 0xd7, 0x17, 0xbb, 0xf1, 0xda, 0x38, 0xc0, 0xf4,
  0x17, 0x05, 0xb4, 0x06, 0x11, 0xca, 0x2d, 0xd8, 0xb3, 0x07, 0xed, 0xce,
  0x39, 0x15, 0xef, 0x1b, 0xfb, 0xc1, 0xc1, 0x3a, 0x22, 0x2c, 0xc9, 0xda,
  0xe5, 0x12, 0xa0, 0x35, 0xff, 0xdf, 0xfa, 0xf8, 0xde, 0x28, 0x96, 0x55,
  0xd6, 0xef, 0x04, 0x19, 0xd2, 0x2b, 0xd3, 0xce, 0x02, 0xd4, 0x0f, 0xe0,
  0xac, 0x25, 0xe0, 0x6d, 0x47, 0xe4, 0xdb, 0xc9, 0xcd, 0x16, 0xa9, 0xd7,
  0xd7, 0x36, 0x37, 0xf8, 0xb4, 0xea, 0xe4, 0x02, 0x29, 0x01, 0xca, 0xeb,
  0xc3, 0x14, 0xa3, 0xf4, 0x15, 0x00, 0x0d, 0xf0, 0xef, 0xbf, 0xdf, 0x3a,
  0x12, 0xf9, 0xee, 0x00, 0xe1, 0x2d, 0xa9, 0xf0, 0x2f, 0x3a, 0x05, 0x2d,
  0x00, 0x2f, 0xe3, 0xe5, 0x4d, 0x2e, 0xde, 0xeb, 0x02, 0xfd, 0xdf, 0xfc,
  0x06, 0xe7, 0x03, 0x03, 0xb3, 0x2b, 0xad, 0xe7, 0x03, 0x3e, 0xdb, 0x70,
  0xd5, 0xf6, 0x30, 0xee, 0x3e, 0xc5, 0xca, 0x21, 0xa6, 0xc5, 0x0b, 0x1c,
  0xf7, 0x02, 0xf9, 0xe6, 0xfe, 0xc4, 0xe2, 0x3a, 0x3d, 0xd3, 0xc5, 0x3b,
  0x0e, 0x32, 0xcb, 0xdb, 0xd7, 0x37, 0x01, 0xe8, 0xe1, 0x1c, 0x1c, 0xdf,
  0xea, 0xe2, 0x10, 0xfc, 0xfb, 0xce, 0xc3, 0x00, 0x19, 0x14, 0x1d, 0xfa,
  0xfe, 0xf1, 0xee, 0x2d, 0xf3, 0xef, 0xe1, 0x1f, 0xe5, 0xea, 0xe4, 0x28,
  0x12, 0x4a, 0xdd, 0x27, 0xb5, 0xf5, 0xa0, 0xf1, 0x14, 0x07, 0xc5, 0x01,
  0x17, 0x48, 0xb4, 0x05, 0xf7, 0xf8, 0x19, 0x3c, 0xd5, 0x48, 0xf4, 0xc5,
  0x74, 0xdc, 0x30, 0x2f, 0x97, 0x16, 0xaf, 0x1b, 0x05, 0x3f, 0xc9, 0xc0,
  0x06, 0x12, 0xe6, 0xfa, 0xca, 0xf9, 0xf3, 0xfa, 0xde, 0xd9, 0xe0, 0xd1,
  0xd2, 0x0a, 0xee, 0x1e, 0x18, 0xbe, 0x1e, 0x1c, 0x1a, 0x0c, 0x15, 0xe9,
  0xe8, 0xc0, 0x06, 0xf4, 0x09, 0xe2, 0x06, 0x3c, 0xaf, 0xf5, 0xd4, 0xdb,
  0x41, 0x0b, 0x23, 0x52, 0xb2, 0xe0, 0x18, 0xed, 0x10, 0x44, 0x27, 0x32,
  0xf9, 0x2f, 0xd9, 0x00, 0x3f, 0x53, 0x38, 0x39, 0xfa, 0xe9, 0xe4, 0x00,
  0xc1, 0x44, 0xe6, 0x3b, 0x18, 0x13, 0x24, 0xb8, 0x64, 0xe3, 0xd0, 0x38,
  0xb3, 0x02, 0xab, 0x59, 0x2e, 0x20, 0x2c, 0x2e, 0x10, 0xea, 0x9f, 0x13,
  0xfb, 0xc1, 0x05, 0x38, 0xc4, 0xbc, 0xbc, 0xb5, 0xdd, 0xe3, 0x17, 0x15,
  0xf7, 0x26, 0xb3, 0xba, 0x0e, 0xe6, 0x1f, 0xcd, 0x15, 0x16, 0x04, 0xd6,
  0xf8, 0x0f, 0xf3, 0x3f, 0x0e, 0x17, 0xfc, 0xfc, 0xec, 0xdd, 0x10, 0x09,
  0x15, 0x2a, 0xbe, 0xcf, 0x26, 0xf0, 0xd8, 0xe8, 0xb9, 0x31, 0xe9, 0xd9,
  0xf5, 0x19, 0xff, 0x48, 0x09, 0xe1, 0x08, 0x2f, 0xf5, 0x2c, 0x19, 0x1d,
  0xd0, 0x0f, 0x10, 0xb3, 0x7f, 0xd9, 0x4f, 0x08, 0x1b, 0xab, 0xf1, 0x0a,
  0xf8, 0xf0, 0x1b, 0xf9, 0xe2, 0xd0, 0xd1, 0x15, 0x2a, 0xe1, 0x2e, 0xfe,
  0xc3, 0xe4, 0xc2, 0xca, 0xee, 0xd6, 0xed, 0xe6, 0x12, 0xfc, 0xd9, 0xdf,
  0x17, 0x07, 0x0f, 0x19, 0xe5, 0x39, 0xce, 0xe7, 0xd9, 0xdb, 0x21, 0x40,
  0xba, 0x38, 0xa7, 0x36, 0xda, 0x16, 0xed, 0x3f, 0x10, 0xdf, 0xf2, 0xdd,
  0x11, 0xd7, 0xdb, 0x38, 0xef, 0xe3, 0xc3, 0x0f, 0x21, 0x48, 0x45, 0x01,
  0x1f, 0x2f, 0x01, 0xe4, 0xe3, 0x2c, 0xe7, 0xfb, 0x25, 0x35, 0x03, 0xd1,
  0x4d, 0x18, 0xc8, 0x14, 0xfc, 0xa5, 0xf5, 0x0c, 0x03, 0x2d, 0xff, 0xf9,
  0x48, 0x26, 0xba, 0xfd, 0x47, 0x0b, 0x11, 0xe3, 0x3a, 0x1d, 0x2d, 0x0c,
  0x0a, 0x2d, 0xff, 0x1f, 0x2b, 0x29, 0xfc, 0xf3, 0x23, 0xda, 0x29, 0xc2,
  0xe9, 0x11, 0xe8, 0x28, 0x50, 0xf3, 0x3e, 0xde, 0x2a, 0x0e, 0x17, 0xe3,
  0x33, 0x2a, 0x01, 0x2f, 0xc5, 0xf0, 0xf4, 0x25, 0x08, 0xf3, 0xe4, 0xcc,
  0xe3, 0xfe, 0x0a, 0xe0, 0xe4, 0x12, 0x0e, 0x02, 0xc6, 0x08, 0xbc, 0xec,
  0x11, 0xfb, 0x40, 0xdb, 0x2d, 0xd9, 0x2e, 0x32, 0xfb, 0x1b, 0xf5, 0x22,
  0x31, 0xfd, 0x19, 0x2c, 0x38, 0xfe, 0x04, 0xd5, 0x1c, 0x1e, 0x11, 0x3a,
  0xe6, 0xe8, 0xdd, 0x1a, 0xfa, 0x0e, 0xf6, 0xe7, 0xca, 0xe6, 0x08, 0x25,
  0x2e, 0x46, 0xdf, 0x31, 0x31, 0xfe, 0x4b, 0x03, 0x02, 0x4f, 0xd1, 0x52,
  0xf1, 0x0a, 0x0c, 0x35, 0x2e, 0x2e, 0xe4, 0x51, 0x18, 0x43, 0xf5, 0x3a,
  0x10, 0x0a, 0x0e, 0xf2, 0x2d, 0x3b, 0xf9, 0x1b, 0x29, 0x21, 0x1c, 0x04,
  0xf3, 0x24, 0x00, 0x18, 0x37, 0xd9, 0xeb, 0x40, 0x4f, 0x52, 0xd8, 0x61,
  0x32, 0x00, 0x2f, 0x0c, 0xe8, 0x5c, 0xc6, 0xe3, 0x2a, 0xdd, 0xea, 0xf3,
  0x2a, 0xe9, 0x03, 0x38, 0x33, 0x45, 0x01, 0x47, 0x14, 0xec, 0xcc, 0x2a,
  0xd9, 0x2f, 0x23, 0xeb, 0xfb, 0x0b, 0x3e, 0x07, 0xe2, 0x03, 0x2c, 0xf2,
  0xf5, 0x42, 0x16, 0x1d, 0x4a, 0xf3, 0xe7, 0x3e, 0xfa, 0x12, 0x63, 0x0f,
  0x26, 0x3d, 0x52, 0x49, 0x0f, 0x37, 0xe8, 0x2a, 0x1f, 0x4e, 0x2c, 0x56,
  0x3e, 0xf0, 0x0c, 0x1a, 0xf5, 0x08, 0x15, 0x03, 0x40, 0x4a, 0x58, 0x16,
  0xc9, 0x26, 0xf5, 0xf5, 0x13, 0x36, 0xdc, 0x3c, 0x43, 0x1d, 0x0b, 0x3c,
  0x16, 0xde, 0x0c, 0xe3, 0xee, 0x42, 0xc5, 0x11, 0x3f, 0xc1, 0xfc, 0x2e,
  0xd8, 0xb7, 0xf6, 0xca, 0x40, 0x13, 0x23, 0xfb, 0xfc, 0xfe, 0x3b, 0x23,
  0x12, 0x04, 0x1b, 0xf4, 0xce, 0xcf, 0xfa, 0xe2, 0xe2, 0x4b, 0xb2, 0x07,
  0xba, 0xf1, 0xf1, 0xe6, 0x2f, 0xd7, 0xde, 0xff, 0xc3, 0x2a, 0x3c, 0x20,
  0x4b, 0x04, 0xe6, 0x45, 0x13, 0x18, 0xde, 0xb7, 0xf1, 0x25, 0x16, 0x21,
  0x44, 0x1a, 0x07, 0x0f, 0xe7, 0xe8, 0x1e, 0x3a, 0x07, 0x1c, 0x1d, 0x2c,
  0x08, 0x00, 0x1c, 0x0c, 0x09, 0xec, 0x2c, 0xdc, 0xe1, 0x22, 0xe0, 0xf3,
  0xc6, 0x0b, 0xbb, 0x13, 0xf3, 0x26, 0x0f, 0xd8, 0xf2, 0xc7, 0xae, 0x0f,
  0xf9, 0xdf, 0x37, 0x10, 0xd0, 0x0f, 0xeb, 0x03, 0xfd, 0xc8, 0x08, 0xe9,
  0xe5, 0x1a, 0x1f, 0xf4, 0x1b, 0x0e, 0xe3, 0x3b, 0xdd, 0xdb, 0x17, 0xd4,
  0x02, 0x15, 0xfb, 0xe4, 0xf8, 0xf3, 0x37, 0x04, 0xd0, 0xe0, 0xb7, 0xc9,
  0x1a, 0xf5, 0x1b, 0x2f, 0x01, 0xfa, 0xe8, 0x20, 0xf6, 0x3c, 0x0b, 0x4e,
  0xf3, 0x4d, 0x42, 0x12, 0x26, 0x4e, 0x08, 0x30, 0x37, 0x05, 0xe3, 0x34,
  0x0b, 0x2a, 0xb0, 0xf8, 0x07, 0xe8, 0x07, 0xf6, 0xe9, 0xf7, 0x0b, 0xc9,
  0x11, 0xd1, 0xe9, 0x16, 0x02, 0xf6, 0xe4, 0xce, 0xc5, 0xca, 0xfc, 0x38,
  0xec, 0xda, 0x48, 0x1c, 0xf9, 0xf8, 0x0b, 0xcd, 0xf7, 0xd3, 0xfa, 0x1d,
  0x14, 0xda, 0x03, 0xfd, 0x3f, 0xef, 0xc1, 0x1c, 0xd9, 0x30, 0xba, 0xf9,
  0xff, 0x12, 0xaf, 0x33, 0xd6, 0x13, 0xe9, 0xf0, 0x23, 0x31, 0x10, 0x2f,
  0x1d, 0xfa, 0xe2, 0xe8, 0xfc, 0xf7, 0x10, 0x49, 0x10, 0x4b, 0x16, 0x3d,
  0x29, 0x00, 0x1a, 0x33, 0x25, 0xec, 0xe3, 0xd3, 0x10, 0xdc, 0x14, 0x1f,
  0xfa, 0xf3, 0xcb, 0xef, 0xf2, 0x0e, 0x45, 0x11, 0xfe, 0x0b, 0xdc, 0x12,
  0xe3, 0xe2, 0x2f, 0xc6, 0xc9, 0x10, 0x19, 0xf6, 0xf6, 0xda, 0x39, 0xff,
  0x04, 0x10, 0xf8, 0xeb, 0x15, 0x02, 0xea, 0x1a, 0x25, 0xdd, 0x16, 0xde,
  0xec, 0x24, 0x10, 0xf7, 0x2d, 0x13, 0x00, 0x14, 0x1a, 0x03, 0xbe, 0xf9,
  0x48, 0x33, 0x19, 0x27, 0x2f, 0x29, 0xb3, 0x38, 0xea, 0x2a, 0xdd, 0x1c,
  0x00, 0xe7, 0xe7, 0xfc, 0x1f, 0x0c, 0x3b, 0xfd, 0x08, 0x05, 0xbd, 0x2e,
  0xc6, 0xf9, 0x63, 0xfc, 0x42, 0xd9, 0xde, 0x21, 0x31, 0x16, 0xd7, 0x19,
  0xde, 0x42, 0xe6, 0xb5, 0x12, 0x20, 0xe7, 0xdd, 0xfb, 0xf7, 0x0d, 0xef,
  0xfc, 0x0c, 0xfc, 0x18, 0xef, 0x1c, 0x45, 0x01, 0xd8, 0x3b, 0x20, 0x0c,
  0x32, 0x1f, 0xfc, 0x23, 0xe0, 0x02, 0xb8, 0x00, 0x09, 0x13, 0x03, 0xf3,
  0x1f, 0x29, 0xfe, 0x24, 0x0d, 0xfe, 0xe4, 0x28, 0x2d, 0x2d, 0xf8, 0x31,
  0xf0, 0xf2, 0xff, 0x03, 0xe7, 0x3f, 0xf7, 0x29, 0xee, 0x42, 0xd2, 0x27,
  0xfc, 0xbf, 0xfe, 0xa8, 0xcf, 0xe4, 0xff, 0xe8, 0x14, 0xf1, 0xfc, 0xfb,
  0x32, 0x17, 0x44, 0xe8, 0xf1, 0x0d, 0xc3, 0xe2, 0x3b, 0x23, 0xf4, 0xcd,
  0xf7, 0x0d, 0x09, 0xf1, 0xf9, 0xf1, 0x2f, 0xdc, 0xd5, 0xf2, 0xd7, 0xc9,
  0xf5, 0x27, 0x18, 0xdf, 0x00, 0x13, 0x1d, 0x0f, 0x48, 0x00, 0x1d, 0xc2,
  0x0d, 0xfb, 0x05, 0xf2, 0x39, 0x40, 0x47, 0xb5, 0x0d, 0x41, 0x05, 0xf5,
  0x2e, 0x43, 0x15, 0x1e, 0xf6, 0x0e, 0xaa, 0xe6, 0x3d, 0xdc, 0x0e, 0x22,
  0x22, 0x36, 0x12, 0xf7, 0xeb, 0x03, 0xd6, 0x0f, 0x0f, 0xd8, 0x18, 0xdc,
  0xfc, 0x07, 0x17, 0xde, 0xf1, 0x0a, 0x0b, 0xfd, 0x1e, 0xe5, 0x3a, 0xe3,
  0x02, 0x07, 0x3e, 0xc2, 0x3d, 0x11, 0x29, 0xec, 0xfe, 0x3a, 0xc9, 0xc0,
  0xfe, 0x31, 0x4c, 0xe8, 0xd3, 0x12, 0xdf, 0xef, 0x41, 0xfe, 0x1d, 0xc5,
  0xf1, 0x0a, 0xf8, 0x39, 0x0a, 0xd7, 0x1b, 0x12, 0x01, 0x0c, 0x20, 0xea,
  0x1f, 0x07, 0x16, 0x27, 0xfa, 0x04, 0x22, 0xed, 0xeb, 0xf4, 0x06, 0xd6,
  0x26, 0x0d, 0xee, 0x34, 0xf1, 0x09, 0xee, 0x28, 0x25, 0x0e, 0xfd, 0xa8,
  0x3e, 0xf8, 0xcc, 0xe2, 0x15, 0x0b, 0xbd, 0x94, 0xe2, 0x02, 0xfe, 0xfa,
  0xb9, 0x15, 0xf8, 0xb5, 0xe2, 0x27, 0xe7, 0x01, 0x15, 0xe2, 0xe1, 0xee,
  0xeb, 0xf9, 0xf9, 0xea, 0x05, 0xfc, 0xc9, 0x0f, 0xf9, 0xff, 0x2f, 0xfb,
  0xde, 0x0c, 0xe4, 0x32, 0x3d, 0xe4, 0x20, 0xdf, 0xd5, 0x42, 0x21, 0x09,
  0x10, 0x00, 0x12, 0xe0, 0x1e, 0x48, 0x13, 0x2a, 0xf0, 0x2b, 0xdd, 0xdc,
  0x2b, 0x05, 0xdc, 0x08, 0xe1, 0x04, 0x2a, 0x08, 0x31, 0xe7, 0x14, 0x37,
  0x23, 0x2f, 0x02, 0x54, 0x10, 0x0c, 0xc6, 0xeb, 0x31, 0xf4, 0xbe, 0x3e,
  0x0e, 0x10, 0x0d, 0x03, 0xbf, 0xef, 0xed, 0x1d, 0xf3, 0xd7, 0xfe, 0x9b,
  0x22, 0xf8, 0x2b, 0xf2, 0xcb, 0xe3, 0x23, 0xd5, 0x08, 0x40, 0x0c, 0x05,
  0x05, 0x08, 0x01, 0x04, 0x18, 0xd2, 0x0e, 0xcb, 0xcb, 0xe8, 0x0f, 0x19,
  0xfe, 0xe9, 0xed, 0xde, 0x26, 0x25, 0xd6, 0x1b, 0xe1, 0xeb, 0x16, 0xde,
  0x2f, 0x43, 0x21, 0x38, 0xcc, 0x41, 0xef, 0xc0, 0x26, 0xe6, 0x00, 0x1a,
  0x0e, 0x23, 0xde, 0x0e, 0x4a, 0xfd, 0xd9, 0x20, 0x25, 0xed, 0x1b, 0x4c,
  0xeb, 0xdb, 0xe8, 0xff, 0x13, 0x22, 0xa8, 0x44, 0x24, 0xb3, 0xeb, 0x17,
  0xed, 0x20, 0xe3, 0x0c, 0xc0, 0xae, 0x00, 0xa4, 0xec, 0xcb, 0xc2, 0xbf,
  0xc3, 0xcb, 0x9d, 0x20, 0x36, 0x04, 0x62, 0xc0, 0xe6, 0x0e, 0xeb, 0xc9,
  0x2c, 0xe7, 0xf3, 0xf0, 0xed, 0x11, 0xc4, 0xd0, 0x2a, 0xd6, 0x28, 0x12,
  0x15, 0xfc, 0xe2, 0x12, 0xf0, 0xf2, 0x1f, 0xed, 0xfa, 0x13, 0xf9, 0xe3,
  0xf2, 0x12, 0xdd, 0x10, 0x26, 0x2c, 0x33, 0x07, 0xe6, 0x2d, 0x35, 0x17,
  0xe4, 0xf2, 0x0b, 0x10, 0xea, 0x12, 0x0b, 0x07, 0x0a, 0xe7, 0x00, 0xb9,
  0xc8, 0xb6, 0xf1, 0xfc, 0xec, 0xa5, 0xf3, 0xd2, 0xe0, 0xc8, 0xb9, 0xf7,
  0xb2, 0xc6, 0xea, 0x06, 0xed, 0xc9, 0xe1, 0xf6, 0xcd, 0xdd, 0xf2, 0x10,
  0x25, 0x19, 0xff, 0xd8, 0x02, 0xf5, 0xb3, 0xc1, 0x1f, 0xc2, 0xd7, 0x35,
  0xc5, 0xdb, 0x1c, 0xc7, 0xd0, 0xf5, 0xe4, 0xc3, 0xda, 0x1b, 0xf3, 0x2f,
  0x31, 0xce, 0xf1, 0xd4, 0x0e, 0xeb, 0xfc, 0x22, 0xf8, 0xec, 0x39, 0xce,
  0xfa, 0x21, 0x23, 0xeb, 0x01, 0xf5, 0x0c, 0x24, 0xf3, 0xcb, 0x0c, 0xce,
  0x05, 0x20, 0x25, 0x25, 0xe8, 0xee, 0xd9, 0xfc, 0xf2, 0xdd, 0xf4, 0xd1,
  0xe3, 0xde, 0xe6, 0x0c, 0xdf, 0xa2, 0x29, 0xb9, 0x0c, 0xc0, 0xee, 0xcd,
  0x1e, 0xf5, 0x30, 0xce, 0xc5, 0xd3, 0xd8, 0xfc, 0x56, 0x21, 0x43, 0xbd,
  0xdb, 0x31, 0xf3, 0xd8, 0xb2, 0xf2, 0x14, 0x0a, 0xc1, 0x0d, 0xe6, 0xf8,
  0xfe, 0xd2, 0xfb, 0xf4, 0xeb, 0x1b, 0x0e, 0x23, 0xe4, 0x14, 0xd3, 0xdd,
  0xe3, 0xce, 0xf0, 0xd4, 0x20, 0xc1, 0xd6, 0xfb, 0x05, 0xe3, 0x20, 0xd3,
  0x43, 0xe1, 0x46, 0x10, 0x0d, 0xfb, 0x38, 0xae, 0xf5, 0xdc, 0xbd, 0x10,
  0xf0, 0xf8, 0x23, 0xdb, 0xfe, 0xcc, 0x08, 0xee, 0x07, 0xba, 0xd8, 0xca,
  0xdf, 0xeb, 0xff, 0xea, 0xec, 0xa8, 0xbd, 0x0a, 0xb8, 0xf8, 0xae, 0xc2,
  0xee, 0x02, 0xde, 0xe5, 0xeb, 0x5a, 0xe2, 0x17, 0x68, 0xf8, 0xd4, 0x51,
  0x05, 0x27, 0x0f, 0x04, 0x25, 0xf6, 0xe9, 0xf8, 0xcd, 0xfd, 0x1f, 0x56,
  0x13, 0x09, 0x22, 0xdf, 0xff, 0xea, 0xee, 0xb4, 0x11, 0x22, 0xb4, 0xd6,
  0x0a, 0xee, 0x2c, 0xd6, 0xd2, 0xbd, 0x14, 0x47, 0x12, 0x45, 0x30, 0xf2,
  0x2d, 0xe6, 0xe8, 0x47, 0x0b, 0x28, 0xf8, 0xcb, 0x19, 0xf5, 0x24, 0x19,
  0x25, 0x31, 0x13, 0xc9, 0xe8, 0xb4, 0xd8, 0x35, 0x01, 0x2d, 0x29, 0x13,
  0x05, 0xf0, 0x0b, 0xe0, 0x2e, 0xd3, 0xa1, 0xce, 0xad, 0x05, 0xce, 0xf8,
  0xe2, 0x03, 0x08, 0xfb, 0x35, 0x39, 0xe6, 0xff, 0xf3, 0xee, 0xec, 0x27,
  0x07, 0xdf, 0xfb, 0xde, 0x1c, 0x0d, 0x08, 0xff, 0xcc, 0xef, 0x0a, 0xf4,
  0x1a, 0x05, 0x05, 0xdf, 0xcf, 0xb6, 0xb0, 0x0e, 0x24, 0xd7, 0xef, 0xce,
  0x1a, 0xf5, 0x18, 0x30, 0x09, 0xc7, 0x25, 0x0c, 0xe2, 0xc3, 0xbc, 0xf3,
  0xe5, 0xdc, 0x3d, 0xf7, 0x39, 0xb3, 0xca, 0xda, 0xc0, 0xb2, 0x20, 0x37,
  0xf3, 0xde, 0xda, 0xb8, 0xfc, 0xf4, 0x0a, 0x17, 0xfc, 0xf8, 0xa4, 0x18,
  0x09, 0xed, 0xc5, 0x11, 0xd7, 0x20, 0xc6, 0xed, 0xe3, 0x0f, 0x2d, 0xb1,
  0x43, 0xdc, 0xf4, 0x1f, 0x24, 0xf1, 0xef, 0x11, 0xdd, 0x21, 0x23, 0x41,
  0x0b, 0xb7, 0x1e, 0x36, 0x3a, 0x03, 0xdf, 0xc3, 0x0e, 0xae, 0x03, 0x23,
  0x1f, 0xdb, 0x4b, 0x23, 0x27, 0xce, 0xd2, 0x2d, 0xc7, 0x24, 0xfc, 0x04,
  0xf7, 0xe5, 0xd5, 0x05, 0xf9, 0xd6, 0x13, 0x03, 0x35, 0xdd, 0x18, 0xec,
  0xce, 0xbc, 0xe9, 0x08, 0x23, 0xab, 0xed, 0x38, 0xee, 0xf1, 0x1b, 0x2c,
  0xf0, 0xcc, 0x3a, 0x09, 0x20, 0xf1, 0xa8, 0xb1, 0x14, 0x95, 0x09, 0xf1,
  0xbc, 0x0a, 0xe8, 0x1f, 0xfa, 0x0f, 0x45, 0x22, 0x04, 0xf9, 0xf2, 0x2a,
  0xf9, 0x04, 0x0f, 0x12, 0xea, 0x19, 0x0b, 0x17, 0xfc, 0xe8, 0x10, 0x35,
  0x25, 0xf7, 0x44, 0xf7, 0xe9, 0xd5, 0x19, 0x19, 0x43, 0x0a, 0x48, 0xc9,
  0x00, 0x19, 0x2e, 0x3a, 0x32, 0xbd, 0xfd, 0xe6, 0xdc, 0xeb, 0x09, 0xe7,
  0x13, 0x30, 0x2f, 0x06, 0x3e, 0xa5, 0xf8, 0xf5, 0xe1, 0xe6, 0x4f, 0x3b,
  0xf9, 0xf1, 0xa8, 0x03, 0xf1, 0x1c, 0x50, 0x29, 0xd8, 0xb9, 0xe5, 0xc9,
  0xdf, 0xe1, 0xd9, 0xdc, 0xd2, 0xcf, 0xbc, 0x0e, 0xa7, 0x23, 0xec, 0x39,
  0xdc, 0x53, 0xd3, 0xf3, 0x16, 0xf5, 0x07, 0xe5, 0x05, 0x12, 0x04, 0x43,
  0x4b, 0x32, 0x38, 0xe5, 0xdc, 0xfe, 0x19, 0xfc, 0x0d, 0x3c, 0x11, 0x0d,
  0x23, 0xee, 0xd7, 0x46, 0x04, 0xd1, 0x0a, 0x11, 0xef, 0xc2, 0x01, 0xe4,
  0xfe, 0xf9, 0x31, 0x3c, 0x11, 0x13, 0xd3, 0xea, 0xfb, 0xc9, 0x3e, 0xe2,
  0xf1, 0xca, 0x35, 0xcb, 0xe4, 0xfa, 0x17, 0x32, 0x09, 0xff, 0xd5, 0xcc,
  0xc6, 0xee, 0xf9, 0x25, 0x1a, 0x19, 0x24, 0xeb, 0x2d, 0x19, 0xf6, 0x44,
  0xce, 0xe0, 0x1f, 0xfd, 0xb1, 0xe4, 0x00, 0x33, 0x29, 0x19, 0x1d, 0xe8,
  0xfd, 0x03, 0xf7, 0x31, 0xaf, 0xb1, 0x0d, 0x06, 0x03, 0x0d, 0x17, 0xc0,
  0xfb, 0xfb, 0xdd, 0xf1, 0xe1, 0xf8, 0xcc, 0xf4, 0x0b, 0xf7, 0x18, 0x06,
  0x15, 0xfe, 0xfe, 0xf5, 0x01, 0x99, 0x48, 0xc7, 0x1e, 0x19, 0xf9, 0xea,
  0x4a, 0xdf, 0xea, 0x15, 0x03, 0xde, 0xeb, 0x0c, 0x0a, 0xfe, 0x32, 0xe5,
  0x05, 0xfe, 0x3c, 0xd7, 0xe0, 0xae, 0x0a, 0xd5, 0x09, 0x1e, 0x3f, 0x43,
  0xfd, 0xec, 0x06, 0xbd, 0x27, 0xfe, 0xfb, 0x51, 0x30, 0x07, 0x08, 0xce,
  0xe4, 0x1e, 0x42, 0xfa, 0x02, 0x1a, 0x37, 0xa0, 0x44, 0x00, 0xda, 0xd7,
  0xfd, 0x02, 0x23, 0x27, 0xd9, 0x34, 0x11, 0x12, 0x1a, 0x17, 0xf2, 0xfd,
  0x2e, 0x04, 0xfc, 0x0f, 0x16, 0xc3, 0x30, 0x4d, 0xed, 0x01, 0x15, 0xdf,
  0x22, 0xb2, 0x25, 0x0f, 0xe4, 0xea, 0x20, 0xda, 0xc9, 0x9f, 0x34, 0xd3,
  0xbd, 0x00, 0xf3, 0x17, 0x0a, 0x06, 0xee, 0x09, 0xf7, 0xdd, 0x23, 0xd2,
  0x11, 0xfc, 0x28, 0xd2, 0xcd, 0x1d, 0xf7, 0xf4, 0xfa, 0x22, 0xe1, 0xf6,
  0xd6, 0x60, 0xfc, 0x20, 0xfc, 0x2d, 0xba, 0x37, 0xf4, 0xd7, 0x03, 0x1d,
  0xcf, 0xeb, 0x23, 0xcb, 0x16, 0x0b, 0xe8, 0x14, 0xdc, 0x2b, 0xf5, 0x1d,
  0x34, 0xfe, 0x15, 0x1a, 0x14, 0xcb, 0xd7, 0xf8, 0xd9, 0xe5, 0x14, 0xfa,
  0xd3, 0xb4, 0x03, 0x42, 0xde, 0xd3, 0x1d, 0xde, 0xc2, 0xe4, 0xbc, 0xe5,
  0xf6, 0xc3, 0x03, 0xf1, 0xbd, 0xf3, 0x17, 0x11, 0xc6, 0xe2, 0x1d, 0x10,
  0x2d, 0x13, 0x1d, 0xe2, 0xfa, 0x13, 0x0b, 0xec, 0x4e, 0xf3, 0xd7, 0x0b,
  0x0c, 0x13, 0x2b, 0x0f, 0xf9, 0x18, 0x15, 0x0c, 0x2f, 0x3b, 0x09, 0xfa,
  0xfa, 0x38, 0xb4, 0x62, 0xd8, 0xb2, 0x4d, 0xef, 0xcd, 0x40, 0x23, 0x0d,
  0xf2, 0xdf, 0xf3, 0x00, 0xc7, 0xf0, 0xcb, 0xe7, 0x30, 0xde, 0x2d, 0x1f,
  0xd9, 0x2e, 0xe8, 0x29, 0xe0, 0xea, 0x14, 0xd7, 0x17, 0xe3, 0xd7, 0x40,
  0x39, 0xd6, 0x00, 0x04, 0xbe, 0xfc, 0x05, 0xc3, 0xee, 0xce, 0xfb, 0x0a,
  0xef, 0xf6, 0xd0, 0xc9, 0x06, 0x03, 0xf1, 0x34, 0xea, 0xcd, 0x57, 0x00,
  0xc3, 0xed, 0xfa, 0x18, 0xf5, 0xfd, 0xea, 0xcd, 0x26, 0x05, 0x11, 0x5d,
  0x23, 0x52, 0x22, 0x0a, 0x23, 0xec, 0x00, 0x26, 0xdc, 0x15, 0xa2, 0x25,
  0xc0, 0xd3, 0x05, 0x27, 0xea, 0x1c, 0x45, 0xea, 0xdc, 0xb2, 0xdd, 0x24,
  0xe7, 0x0b, 0x0c, 0x07, 0xec, 0xf5, 0x04, 0xf8, 0xfa, 0xdf, 0x32, 0x4b,
  0x2a, 0xd4, 0x17, 0x23, 0xd1, 0x33, 0xd2, 0xf3, 0x12, 0xac, 0x00, 0xb6,
  0xe5, 0xf0, 0x1c, 0xc4, 0xcd, 0xf2, 0x20, 0xc2, 0xcc, 0x14, 0x50, 0xed,
  0xe0, 0xc2, 0x0d, 0x0a, 0xbc, 0x30, 0x3a, 0xb6, 0xbc, 0xc0, 0x3e, 0xf9,
  0xf7, 0xff, 0x24, 0xa7, 0xfd, 0xfa, 0x28, 0x37, 0xf9, 0xff, 0xea, 0xde,
  0x37, 0x01, 0x00, 0x34, 0x1a, 0xd1, 0x00, 0xed, 0xda, 0xe4, 0x15, 0x2c,
  0x0b, 0xf3, 0xdd, 0xd3, 0x19, 0xdf, 0xde, 0xed, 0x26, 0xd1, 0xfb, 0x03,
  0xfe, 0xde, 0x10, 0xbe, 0x23, 0x1f, 0xfe, 0x03, 0xdb, 0xe5, 0x33, 0x09,
  0x1d, 0xdd, 0xfc, 0xd9, 0xec, 0xe6, 0x02, 0xff, 0xd0, 0xd7, 0x0a, 0xe7,
  0xaf, 0xd6, 0x10, 0x07, 0xd1, 0x0a, 0xff, 0xa6, 0xaa, 0xb7, 0xc1, 0xd9,
  0x32, 0xf3, 0x2d, 0xfc, 0xca, 0x1d, 0x2d, 0x24, 0x11, 0xf7, 0x45, 0xd5,
  0xeb, 0xd7, 0x15, 0xfd, 0x0a, 0xf8, 0x54, 0xd3, 0x3b, 0xfb, 0x53, 0xf0,
  0x4c, 0x0e, 0xf2, 0x03, 0xbe, 0xef, 0x1c, 0xb8, 0xdf, 0x1c, 0xdb, 0xb8,
  0xc7, 0x21, 0x35, 0xc2, 0x0e, 0x26, 0x30, 0xbb, 0xe4, 0xd0, 0xe8, 0xec,
  0xdc, 0x12, 0xf3, 0xfb, 0xd7, 0x0a, 0x02, 0x03, 0xec, 0xca, 0xf0, 0xdf,
  0x0e, 0x05, 0xb8, 0xc9, 0xcd, 0xa8, 0xf7, 0xc0, 0x0c, 0xeb, 0xf7, 0xef,
  0x2d, 0xce, 0x2d, 0xe0, 0xe9, 0x01, 0x1d, 0xae, 0x14, 0xda, 0xca, 0x14,
  0x2e, 0xec, 0x1f, 0xc9, 0x0e, 0xc9, 0x13, 0xbc, 0x0a, 0x24, 0x1d, 0xd2,
  0x2c, 0x19, 0x26, 0x02, 0xdb, 0xf0, 0x06, 0x0e, 0x38, 0x22, 0xb5, 0xca,
  0x52, 0xff, 0xff, 0xff, 0x04, 0x00, 0x00, 0x00, 0x08, 0x00, 0x00, 0x00,
  0x7f, 0x7f, 0x70, 0x6d, 0x6c, 0x63, 0x71, 0x71, 0x66, 0xff, 0xff, 0xff,
  0x04, 0x00, 0x00, 0x00, 0x08, 0x00, 0x00, 0x00, 0x8e, 0x89, 0xad, 0x8d,
  0x9b, 0x81, 0xb3, 0x8e, 0x7a, 0xff, 0xff, 0xff, 0x04, 0x00, 0x00, 0x00,
  0x08, 0x00, 0x00, 0x00, 0x7f, 0x38, 0x35, 0x2a, 0x1d, 0x0d, 0x0c, 0x7e,
  0x8e, 0xff, 0xff, 0xff, 0x04, 0x00, 0x00, 0x00, 0x08, 0x00, 0x00, 0x00,
  0xea, 0xcb, 0xcc, 0xb9, 0x8c, 0x81, 0x87, 0xdf, 0xa2, 0xff, 0xff, 0xff,
  0x04, 0x00, 0x00, 0x00, 0x08, 0x00, 0x00, 0x00, 0xff, 0xff, 0xff, 0xff,
  0xc0, 0x03, 0x00, 0x00, 0xb6, 0xff, 0xff, 0xff, 0x04, 0x00, 0x00, 0x00,
  0x10, 0x00, 0x00, 0x00, 0xe5, 0xf7, 0xff, 0xff, 0xcd, 0xf6, 0xff, 0xff,
  0x03, 0x05, 0x00, 0x00, 0x50, 0x07, 0x00, 0x00, 0xd2, 0xff, 0xff, 0xff,
  0x04, 0x00, 0x00, 0x00, 0x20, 0x00, 0x00, 0x00, 0xa6, 0x00, 0x00, 0x00,
  0xf8, 0x01, 0x00, 0x00, 0x93, 0xfe, 0xff, 0xff, 0x82, 0x01, 0x00, 0x00,
  0x28, 0x02, 0x00, 0x00, 0xfc, 0x00, 0x00, 0x00, 0x88, 0xff, 0xff, 0xff,
  0x73, 0xff, 0xff, 0xff, 0x00, 0x00, 0x06, 0x00, 0x08, 0x00, 0x04, 0x00,
  0x06, 0x00, 0x00, 0x00, 0x04, 0x00, 0x00, 0x00, 0x20, 0x00, 0x00, 0x00,
  0x08, 0x00, 0x00, 0x00, 0x03, 0x00, 0x00, 0x00, 0xff, 0xff, 0xff, 0xff,
  0x07, 0x00, 0x00, 0x00, 0x03, 0x00, 0x00, 0x00, 0x01, 0x00, 0x00, 0x00,
  0x01, 0x00, 0x00, 0x00, 0x02, 0x00, 0x00, 0x00, 0xb4, 0xf0, 0xff, 0xff,
  0xb8, 0xf0, 0xff, 0xff, 0x0f, 0x00, 0x00, 0x00, 0x4d, 0x4c, 0x49, 0x52,
  0x20, 0x43, 0x6f, 0x6e, 0x76, 0x65, 0x72, 0x74, 0x65, 0x64, 0x2e, 0x00,
  0x01, 0x00, 0x00, 0x00, 0x14, 0x00, 0x00, 0x00, 0x00, 0x00, 0x0e, 0x00,
  0x18, 0x00, 0x14, 0x00, 0x10, 0x00, 0x0c, 0x00, 0x08, 0x00, 0x04, 0x00,
  0x0e, 0x00, 0x00, 0x00, 0x14, 0x00, 0x00, 0x00, 0x1c, 0x00, 0x00, 0x00,
  0x9c, 0x02, 0x00, 0x00, 0xa0, 0x02, 0x00, 0x00, 0xa4, 0x02, 0x00, 0x00,
  0x04, 0x00, 0x00, 0x00, 0x6d, 0x61, 0x69, 0x6e, 0x00, 0x00, 0x00, 0x00,
  0x0a, 0x00, 0x00, 0x00, 0x38, 0x02, 0x00, 0x00, 0xd4, 0x01, 0x00, 0x00,
  0x90, 0x01, 0x00, 0x00, 0x5c, 0x01, 0x00, 0x00, 0x1c, 0x01, 0x00, 0x00,
  0xd8, 0x00, 0x00, 0x00, 0xa4, 0x00, 0x00, 0x00, 0x70, 0x00, 0x00, 0x00,
  0x48, 0x00, 0x00, 0x00, 0x04, 0x00, 0x00, 0x00, 0x5e, 0xfe, 0xff, 0xff,
  0x14, 0x00, 0x00, 0x00, 0x00, 0x00, 0x00, 0x08, 0x10, 0x00, 0x00, 0x00,
  0x14, 0x00, 0x00, 0x00, 0x05, 0x00, 0x00, 0x00, 0x50, 0xf1, 0xff, 0xff,
  0x01, 0x00, 0x00, 0x00, 0x15, 0x00, 0x00, 0x00, 0x03, 0x00, 0x00, 0x00,
  0x14, 0x00, 0x00, 0x00, 0x09, 0x00, 0x00, 0x00, 0x03, 0x00, 0x00, 0x00,
  0x00, 0x00, 0x0a, 0x00, 0x10, 0x00, 0x0c, 0x00, 0x08, 0x00, 0x04, 0x00,
  0x0a, 0x00, 0x00, 0x00, 0x0c, 0x00, 0x00, 0x00, 0x10, 0x00, 0x00, 0x00,
  0x04, 0x00, 0x00, 0x00, 0x01, 0x00, 0x00, 0x00, 0x14, 0x00, 0x00, 0x00,
  0x02, 0x00, 0x00, 0x00, 0x13, 0x00, 0x00, 0x00, 0x04, 0x00, 0x00, 0x00,
  0xc2, 0xfe, 0xff, 0xff, 0x14, 0x00, 0x00, 0x00, 0x00, 0x00, 0x00, 0x0b,
  0x10, 0x00, 0x00, 0x00, 0x14, 0x00, 0x00, 0x00, 0x03, 0x00, 0x00, 0x00,
  0xb4, 0xf1, 0xff, 0xff, 0x01, 0x00, 0x00, 0x00, 0x13, 0x00, 0x00, 0x00,
  0x02, 0x00, 0x00, 0x00, 0x12, 0x00, 0x00, 0x00, 0x07, 0x00, 0x00, 0x00,
  0xf2, 0xfe, 0xff, 0xff, 0x14, 0x00, 0x00, 0x00, 0x00, 0x00, 0x00, 0x15,
  0x10, 0x00, 0x00, 0x00, 0x14, 0x00, 0x00, 0x00, 0x02, 0x00, 0x00, 0x00,
  0xe4, 0xf1, 0xff, 0xff, 0x01, 0x00, 0x00, 0x00, 0x12, 0x00, 0x00, 0x00,
  0x02, 0x00, 0x00, 0x00, 0x11, 0x00, 0x00, 0x00, 0x08, 0x00, 0x00, 0x00,
  0x22, 0xff, 0xff, 0xff, 0x14, 0x00, 0x00, 0x00, 0x00, 0x00, 0x00, 0x05,
  0x24, 0x00, 0x00, 0x00, 0x28, 0x00, 0x00, 0x00, 0x01, 0x00, 0x00, 0x00,
  0x12, 0xff, 0xff, 0xff, 0x02, 0x00, 0x00, 0x00, 0x02, 0x00, 0x00, 0x00,
  0x02, 0x00, 0x00, 0x00, 0x02, 0x00, 0x00, 0x00, 0x00, 0x00, 0x00, 0x01,
  0x01, 0x00, 0x00, 0x00, 0x11, 0x00, 0x00, 0x00, 0x01, 0x00, 0x00, 0x00,
  0x10, 0x00, 0x00, 0x00, 0x02, 0xff, 0xff, 0xff, 0x10, 0x00, 0x00, 0x00,
  0x00, 0x00, 0x00, 0x01, 0x18, 0x00, 0x00, 0x00, 0x1c, 0x00, 0x00, 0x00,
  0xf4, 0xfe, 0xff, 0xff, 0x00, 0x00, 0x00, 0x01, 0x01, 0x00, 0x00, 0x00,
  0x01, 0x00, 0x00, 0x00, 0x01, 0x00, 0x00, 0x00, 0x10, 0x00, 0x00, 0x00,
  0x03, 0x00, 0x00, 0x00, 0x0f, 0x00, 0x00, 0x00, 0x0b, 0x00, 0x00, 0x00,
  0x02, 0x00, 0x00, 0x00, 0x9e, 0xff, 0xff, 0xff, 0x14, 0x00, 0x00, 0x00,
  0x00, 0x00, 0x00, 0x0b, 0x10, 0x00, 0x00, 0x00, 0x14, 0x00, 0x00, 0x00,
  0x03, 0x00, 0x00, 0x00, 0x90, 0xf2, 0xff, 0xff, 0x01, 0x00, 0x00, 0x00,
  0x0f, 0x00, 0x00, 0x00, 0x02, 0x00, 0x00, 0x00, 0x0e, 0x00, 0x00, 0x00,
  0x05, 0x00, 0x00, 0x00, 0xce, 0xff, 0xff, 0xff, 0x14, 0x00, 0x00, 0x00,
  0x00, 0x00, 0x00, 0x15, 0x10, 0x00, 0x00, 0x00, 0x14, 0x00, 0x00, 0x00,
  0x02, 0x00, 0x00, 0x00, 0xc0, 0xf2, 0xff, 0xff, 0x01, 0x00, 0x00, 0x00,
  0x0e, 0x00, 0x00, 0x00, 0x02, 0x00, 0x00, 0x00, 0x0d, 0x00, 0x00, 0x00,
  0x06, 0x00, 0x00, 0x00, 0x00, 0x00, 0x0e, 0x00, 0x1a, 0x00, 0x14, 0x00,
  0x10, 0x00, 0x0c, 0x00, 0x0b, 0x00, 0x04, 0x00, 0x0e, 0x00, 0x00, 0x00,
  0x24, 0x00, 0x00, 0x00, 0x00, 0x00, 0x00, 0x05, 0x34, 0x00, 0x00, 0x00,
  0x38, 0x00, 0x00, 0x00, 0x01, 0x00, 0x00, 0x00, 0x00, 0x00, 0x0e, 0x00,
  0x18, 0x00, 0x17, 0x00, 0x10, 0x00, 0x0c, 0x00, 0x08, 0x00, 0x04, 0x00,
  0x0e, 0x00, 0x00, 0x00, 0x02, 0x00, 0x00, 0x00, 0x02, 0x00, 0x00, 0x00,
  0x02, 0x00, 0x00, 0x00, 0x02, 0x00, 0x00, 0x00, 0x00, 0x00, 0x00, 0x01,
  0x01, 0x00, 0x00, 0x00, 0x0d, 0x00, 0x00, 0x00, 0x01, 0x00, 0x00, 0x00,
  0x0c, 0x00, 0x00, 0x00, 0x00, 0x00, 0x0e, 0x00, 0x14, 0x00, 0x00, 0x00,
  0x10, 0x00, 0x0c, 0x00, 0x0b, 0x00, 0x04, 0x00, 0x0e, 0x00, 0x00, 0x00,
  0x1c, 0x00, 0x00, 0x00, 0x00, 0x00, 0x00, 0x01, 0x24, 0x00, 0x00, 0x00,
  0x28, 0x00, 0x00, 0x00, 0x0c, 0x00, 0x10, 0x00, 0x00, 0x00, 0x0c, 0x00,
  0x08, 0x00, 0x07, 0x00, 0x0c, 0x00, 0x00, 0x00, 0x00, 0x00, 0x00, 0x01,
  0x01, 0x00, 0x00, 0x00, 0x01, 0x00, 0x00, 0x00, 0x01, 0x00, 0x00, 0x00,
  0x0c, 0x00, 0x00, 0x00, 0x03, 0x00, 0x00, 0x00, 0x00, 0x00, 0x00, 0x00,
  0x0a, 0x00, 0x00, 0x00, 0x01, 0x00, 0x00, 0x00, 0x01, 0x00, 0x00, 0x00,
  0x15, 0x00, 0x00, 0x00, 0x01, 0x00, 0x00, 0x00, 0x00, 0x00, 0x00, 0x00,
  0x16, 0x00, 0x00, 0x00, 0xcc, 0x0e, 0x00, 0x00, 0xd8, 0x0d, 0x00, 0x00,
  0xf8, 0x0c, 0x00, 0x00, 0x7c, 0x0c, 0x00, 0x00, 0x34, 0x0c, 0x00, 0x00,
  0xa4, 0x0b, 0x00, 0x00, 0x10, 0x0b, 0x00, 0x00, 0x7c, 0x0a, 0x00, 0x00,
  0xe8, 0x09, 0x00, 0x00, 0x6c, 0x09, 0x00, 0x00, 0x58, 0x08, 0x00, 0x00,
  0x44, 0x07, 0x00, 0x00, 0x30, 0x06, 0x00, 0x00, 0x8c, 0x05, 0x00, 0x00,
  0xd8, 0x04, 0x00, 0x00, 0x24, 0x04, 0x00, 0x00, 0x28, 0x03, 0x00, 0x00,
  0x84, 0x02, 0x00, 0x00, 0xd0, 0x01, 0x00, 0x00, 0x1c, 0x01, 0x00, 0x00,
  0x88, 0x00, 0x00, 0x00, 0x04, 0x00, 0x00, 0x00, 0xa0, 0xf1, 0xff, 0xff,
  0x18, 0x00, 0x00, 0x00, 0x20, 0x00, 0x00, 0x00, 0x54, 0x00, 0x00, 0x00,
  0x16, 0x00, 0x00, 0x00, 0x00, 0x00, 0x00, 0x09, 0x5c, 0x00, 0x00, 0x00,
  0x02, 0x00, 0x00, 0x00, 0xff, 0xff, 0xff, 0xff, 0x04, 0x00, 0x00, 0x00,
  0x84, 0xf1, 0xff, 0xff, 0x10, 0x00, 0x00, 0x00, 0x18, 0x00, 0x00, 0x00,
  0x1c, 0x00, 0x00, 0x00, 0x20, 0x00, 0x00, 0x00, 0x01, 0x00, 0x00, 0x00,
  0x1a, 0x00, 0x00, 0x00, 0x00, 0x00, 0x00, 0x00, 0x01, 0x00, 0x00, 0x00,
  0x55, 0x61, 0x88, 0x3d, 0x01, 0x00, 0x00, 0x00, 0x54, 0x42, 0xd6, 0x40,
  0x01, 0x00, 0x00, 0x00, 0xbd, 0x90, 0x24, 0xc1, 0x0d, 0x00, 0x00, 0x00,
  0x49, 0x64, 0x65, 0x6e, 0x74, 0x69, 0x74, 0x79, 0x5f, 0x69, 0x6e, 0x74,
  0x38, 0x00, 0x00, 0x00, 0x02, 0x00, 0x00, 0x00, 0x01, 0x00, 0x00, 0x00,
  0x04, 0x00, 0x00, 0x00, 0x20, 0xf2, 0xff, 0xff, 0x18, 0x00, 0x00, 0x00,
  0x20, 0x00, 0x00, 0x00, 0x58, 0x00, 0x00, 0x00, 0x15, 0x00, 0x00, 0x00,
  0x00, 0x00, 0x00, 0x09, 0x6c, 0x00, 0x00, 0x00, 0x02, 0x00, 0x00, 0x00,
  0xff, 0xff, 0xff, 0xff, 0xc0, 0x03, 0x00, 0x00, 0x04, 0xf2, 0xff, 0xff,
  0x10, 0x00, 0x00, 0x00, 0x1c, 0x00, 0x00, 0x00, 0x20, 0x00, 0x00, 0x00,
  0x24, 0x00, 0x00, 0x00, 0x01, 0x00, 0x00, 0x00, 0xa3, 0xff, 0xff, 0xff,
  0xff, 0xff, 0xff, 0xff, 0x00, 0x00, 0x00, 0x00, 0x01, 0x00, 0x00, 0x00,
  0x9c, 0x92, 0xd2, 0x3c, 0x01, 0x00, 0x00, 0x00, 0x61, 0x5e, 0xb5, 0x40,
  0x01, 0x00, 0x00, 0x00, 0x40, 0x0d, 0x63, 0xbf, 0x19, 0x00, 0x00, 0x00,
  0x73, 0x74, 0x75, 0x64, 0x65, 0x6e, 0x74, 0x2f, 0x66, 0x6c, 0x61, 0x74,
  0x74, 0x65, 0x6e, 0x5f, 0x31, 0x2f, 0x52, 0x65, 0x73, 0x68, 0x61, 0x70,
  0x65, 0x00, 0x00, 0x00, 0x02, 0x00, 0x00, 0x00, 0x01, 0x00, 0x00, 0x00,
  0xc0, 0x03, 0x00, 0x00, 0xb0, 0xf2, 0xff, 0xff, 0x18, 0x00, 0x00, 0x00,
  0x28, 0x00, 0x00, 0x00, 0x5c, 0x00, 0x00, 0x00, 0x14, 0x00, 0x00, 0x00,
  0x00, 0x00, 0x00, 0x09, 0x84, 0x00, 0x00, 0x00, 0x04, 0x00, 0x00, 0x00,
  0xff, 0xff, 0xff, 0xff, 0x0c, 0x00, 0x00, 0x00, 0x0a, 0x00, 0x00, 0x00,
  0x08, 0x00, 0x00, 0x00, 0x9c, 0xf2, 0xff, 0xff, 0x10, 0x00, 0x00, 0x00,
  0x18, 0x00, 0x00, 0x00, 0x1c, 0x00, 0x00, 0x00, 0x20, 0x00, 0x00, 0x00,
  0x01, 0x00, 0x00, 0x00, 0xa3, 0xff, 0xff, 0xff, 0xff, 0xff, 0xff, 0xff,
  0x01, 0x00, 0x00, 0x00, 0x9c, 0x92, 0xd2, 0x3c, 0x01, 0x00, 0x00, 0x00,
  0x61, 0x5e, 0xb5, 0x40, 0x01, 0x00, 0x00, 0x00, 0x40, 0x0d, 0x63, 0xbf,
  0x2f, 0x00, 0x00, 0x00, 0x73, 0x74, 0x75, 0x64, 0x65, 0x6e, 0x74, 0x2f,
  0x62, 0x61, 0x74, 0x63, 0x68, 0x5f, 0x6e, 0x6f, 0x72, 0x6d, 0x61, 0x6c,
  0x69, 0x7a, 0x61, 0x74, 0x69, 0x6f, 0x6e, 0x5f, 0x33, 0x2f, 0x46, 0x75,
  0x73, 0x65, 0x64, 0x42, 0x61, 0x74, 0x63, 0x68, 0x4e, 0x6f, 0x72, 0x6d,
  0x56, 0x33, 0x33, 0x00, 0x04, 0x00, 0x00, 0x00, 0x01, 0x00, 0x00, 0x00,
  0x0c, 0x00, 0x00, 0x00, 0x0a, 0x00, 0x00, 0x00, 0x08, 0x00, 0x00, 0x00,
  0x60, 0xf3, 0xff, 0xff, 0x18, 0x00, 0x00, 0x00, 0x28, 0x00, 0x00, 0x00,
  0x5c, 0x00, 0x00, 0x00, 0x13, 0x00, 0x00, 0x00, 0x00, 0x00, 0x00, 0x09,
  0x84, 0x00, 0x00, 0x00, 0x04, 0x00, 0x00, 0x00, 0xff, 0xff, 0xff, 0xff,
  0x0c, 0x00, 0x00, 0x00, 0x0a, 0x00, 0x00, 0x00, 0x08, 0x00, 0x00, 0x00,
  0x4c, 0xf3, 0xff, 0xff, 0x10, 0x00, 0x00, 0x00, 0x18, 0x00, 0x00, 0x00,
  0x1c, 0x00, 0x00, 0x00, 0x20, 0x00, 0x00, 0x00, 0x01, 0x00, 0x00, 0x00,
  0x80, 0xff, 0xff, 0xff, 0xff, 0xff, 0xff, 0xff, 0x01, 0x00, 0x00, 0x00,
  0x2b, 0x03, 0xd2, 0x3c, 0x01, 0x00, 0x00, 0x00, 0x28, 0x31, 0xd1, 0x40,
  0x01, 0x00, 0x00, 0x00, 0x00, 0x00, 0x00, 0x00, 0x2f, 0x00, 0x00, 0x00,
  0x73, 0x74, 0x75, 0x64, 0x65, 0x6e, 0x74, 0x2f, 0x62, 0x61, 0x74, 0x63,
  0x68, 0x5f, 0x6e, 0x6f, 0x72, 0x6d, 0x61, 0x6c, 0x69, 0x7a, 0x61, 0x74,
  0x69, 0x6f, 0x6e, 0x5f, 0x33, 0x2f, 0x46, 0x75, 0x73, 0x65, 0x64, 0x42,
  0x61, 0x74, 0x63, 0x68, 0x4e, 0x6f, 0x72, 0x6d, 0x56, 0x33, 0x32, 0x00,
  0x04, 0x00, 0x00, 0x00, 0x01, 0x00, 0x00, 0x00, 0x0c, 0x00, 0x00, 0x00,
  0x0a, 0x00, 0x00, 0x00, 0x08, 0x00, 0x00, 0x00, 0x10, 0xf4, 0xff, 0xff,
  0x18, 0x00, 0x00, 0x00, 0x28, 0x00, 0x00, 0x00, 0x5c, 0x00, 0x00, 0x00,
  0x12, 0x00, 0x00, 0x00, 0x00, 0x00, 0x00, 0x09, 0x74, 0x00, 0x00, 0x00,
  0x04, 0x00, 0x00, 0x00, 0xff, 0xff, 0xff, 0xff, 0x0c, 0x00, 0x00, 0x00,
  0x0a, 0x00, 0x00, 0x00, 0x08, 0x00, 0x00, 0x00, 0xfc, 0xf3, 0xff, 0xff,
  0x10, 0x00, 0x00, 0x00, 0x18, 0x00, 0x00, 0x00, 0x1c, 0x00, 0x00, 0x00,
  0x20, 0x00, 0x00, 0x00, 0x01, 0x00, 0x00, 0x00, 0x80, 0xff, 0xff, 0xff,
  0xff, 0xff, 0xff, 0xff, 0x01, 0x00, 0x00, 0x00, 0x76, 0xec, 0xda, 0x3c,
  0x01, 0x00, 0x00, 0x00, 0x8a, 0x11, 0xda, 0x40, 0x01, 0x00, 0x00, 0x00,
  0x00, 0x00, 0x00, 0x00, 0x1f, 0x00, 0x00, 0x00, 0x73, 0x74, 0x75, 0x64,
  0x65, 0x6e, 0x74, 0x2f, 0x6d, 0x61, 0x78, 0x5f, 0x70, 0x6f, 0x6f, 0x6c,
  0x69, 0x6e, 0x67, 0x32, 0x64, 0x5f, 0x33, 0x2f, 0x4d, 0x61, 0x78, 0x50,
  0x6f, 0x6f, 0x6c, 0x00, 0x04, 0x00, 0x00, 0x00, 0x01, 0x00, 0x00, 0x00,
  0x0c, 0x00, 0x00, 0x00, 0x0a, 0x00, 0x00, 0x00, 0x08, 0x00, 0x00, 0x00,
  0xb0, 0xf4, 0xff, 0xff, 0x18, 0x00, 0x00, 0x00, 0x28, 0x00, 0x00, 0x00,
  0x5c, 0x00, 0x00, 0x00, 0x11, 0x00, 0x00, 0x00, 0x00, 0x00, 0x00, 0x09,
  0xcc, 0x00, 0x00, 0x00, 0x04, 0x00, 0x00, 0x00, 0xff, 0xff, 0xff, 0xff,
  0x18, 0x00, 0x00, 0x00, 0x14, 0x00, 0x00, 0x00, 0x08, 0x00, 0x00, 0x00,
  0x9c, 0xf4, 0xff, 0xff, 0x10, 0x00, 0x00, 0x00, 0x18, 0x00, 0x00, 0x00,
  0x1c, 0x00, 0x00, 0x00, 0x20, 0x00, 0x00, 0x00, 0x01, 0x00, 0x00, 0x00,
  0x80, 0xff, 0xff, 0xff, 0xff, 0xff, 0xff, 0xff, 0x01, 0x00, 0x00, 0x00,
  0x76, 0xec, 0xda, 0x3c, 0x01, 0x00, 0x00, 0x00, 0x8a, 0x11, 0xda, 0x40,
  0x01, 0x00, 0x00, 0x00, 0x00, 0x00, 0x00, 0x00, 0x77, 0x00, 0x00, 0x00,
  0x73, 0x74, 0x75, 0x64, 0x65, 0x6e, 0x74, 0x2f, 0x63, 0x6f, 0x6e, 0x76,
  0x32, 0x64, 0x5f, 0x34, 0x2f, 0x52, 0x65, 0x6c, 0x75, 0x3b, 0x73, 0x74,
  0x75, 0x64, 0x65, 0x6e, 0x74, 0x2f, 0x63, 0x6f, 0x6e, 0x76, 0x32, 0x64,
  0x5f, 0x34, 0x2f, 0x42, 0x69, 0x61, 0x73, 0x41, 0x64, 0x64, 0x3b, 0x73,
  0x74, 0x75, 0x64, 0x65, 0x6e, 0x74, 0x2f, 0x63, 0x6f, 0x6e, 0x76, 0x32,
  0x64, 0x5f, 0x34, 0x2f, 0x43, 0x6f, 0x6e, 0x76, 0x32, 0x44, 0x3b, 0x73,
  0x74, 0x75, 0x64, 0x65, 0x6e, 0x74, 0x2f, 0x63, 0x6f, 0x6e, 0x76, 0x32,
  0x64, 0x5f, 0x34, 0x2f, 0x42, 0x69, 0x61, 0x73, 0x41, 0x64, 0x64, 0x2f,
  0x52, 0x65, 0x61, 0x64, 0x56, 0x61, 0x72, 0x69, 0x61, 0x62, 0x6c, 0x65,
  0x4f, 0x70, 0x2f, 0x72, 0x65, 0x73, 0x6f, 0x75, 0x72, 0x63, 0x65, 0x00,
  0x04, 0x00, 0x00, 0x00, 0x01, 0x00, 0x00, 0x00, 0x18, 0x00, 0x00, 0x00,
  0x14, 0x00, 0x00, 0x00, 0x08, 0x00, 0x00, 0x00, 0xa8, 0xf5, 0xff, 0xff,
  0x18, 0x00, 0x00, 0x00, 0x28, 0x00, 0x00, 0x00, 0x5c, 0x00, 0x00, 0x00,
  0x10, 0x00, 0x00, 0x00, 0x00, 0x00, 0x00, 0x09, 0x84, 0x00, 0x00, 0x00,
  0x04, 0x00, 0x00, 0x00, 0xff, 0xff, 0xff, 0xff, 0x18, 0x00, 0x00, 0x00,
  0x14, 0x00, 0x00, 0x00, 0x08, 0x00, 0x00, 0x00, 0x94, 0xf5, 0xff, 0xff,
  0x10, 0x00, 0x00, 0x00, 0x18, 0x00, 0x00, 0x00, 0x1c, 0x00, 0x00, 0x00,
  0x20, 0x00, 0x00, 0x00, 0x01, 0x00, 0x00, 0x00, 0x96, 0xff, 0xff, 0xff,
  0xff, 0xff, 0xff, 0xff, 0x01, 0x00, 0x00, 0x00, 0x6e, 0x6b, 0x50, 0x3d,
  0x01, 0x00, 0x00, 0x00, 0xb7, 0xae, 0x3d, 0x41, 0x01, 0x00, 0x00, 0x00,
  0x5f, 0x62, 0x8f, 0xbf, 0x2f, 0x00, 0x00, 0x00, 0x73, 0x74, 0x75, 0x64,
  0x65, 0x6e, 0x74, 0x2f, 0x62, 0x61, 0x74, 0x63, 0x68, 0x5f, 0x6e, 0x6f,
  0x72, 0x6d, 0x61, 0x6c, 0x69, 0x7a, 0x61, 0x74, 0x69, 0x6f, 0x6e, 0x5f,
  0x32, 0x2f, 0x46, 0x75, 0x73, 0x65, 0x64, 0x42, 0x61, 0x74, 0x63, 0x68,
  0x4e, 0x6f, 0x72, 0x6d, 0x56, 0x33, 0x33, 0x00, 0x04, 0x00, 0x00, 0x00,
  0x01, 0x00, 0x00, 0x00, 0x18, 0x00, 0x00, 0x00, 0x14, 0x00, 0x00, 0x00,
  0x08, 0x00, 0x00, 0x00, 0x58, 0xf6, 0xff, 0xff, 0x18, 0x00, 0x00, 0x00,
  0x28, 0x00, 0x00, 0x00, 0x5c, 0x00, 0x00, 0x00, 0x0f, 0x00, 0x00, 0x00,
  0x00, 0x00, 0x00, 0x09, 0x84, 0x00, 0x00, 0x00, 0x04, 0x00, 0x00, 0x00,
  0xff, 0xff, 0xff, 0xff, 0x18, 0x00, 0x00, 0x00, 0x14, 0x00, 0x00, 0x00,
  0x08, 0x00, 0x00, 0x00, 0x44, 0xf6, 0xff, 0xff, 0x10, 0x00, 0x00, 0x00,
  0x18, 0x00, 0x00, 0x00, 0x1c, 0x00, 0x00, 0x00, 0x20, 0x00, 0x00, 0x00,
  0x01, 0x00, 0x00, 0x00, 0x80, 0xff, 0xff, 0xff, 0xff, 0xff, 0xff, 0xff,
  0x01, 0x00, 0x00, 0x00, 0x09, 0x95, 0x41, 0x3d, 0x01, 0x00, 0x00, 0x00,
  0x74, 0xd3, 0x40, 0x41, 0x01, 0x00, 0x00, 0x00, 0x00, 0x00, 0x00, 0x00,
  0x2f, 0x00, 0x00, 0x00, 0x73, 0x74, 0x75, 0x64, 0x65, 0x6e, 0x74, 0x2f,
  0x62, 0x61, 0x74, 0x63, 0x68, 0x5f, 0x6e, 0x6f, 0x72, 0x6d, 0x61, 0x6c,
  0x69, 0x7a, 0x61, 0x74, 0x69, 0x6f, 0x6e, 0x5f, 0x32, 0x2f, 0x46, 0x75,
  0x73, 0x65, 0x64, 0x42, 0x61, 0x74, 0x63, 0x68, 0x4e, 0x6f, 0x72, 0x6d,
  0x56, 0x33, 0x32, 0x00, 0x04, 0x00, 0x00, 0x00, 0x01, 0x00, 0x00, 0x00,
  0x18, 0x00, 0x00, 0x00, 0x14, 0x00, 0x00, 0x00, 0x08, 0x00, 0x00, 0x00,
  0x08, 0xf7, 0xff, 0xff, 0x18, 0x00, 0x00, 0x00, 0x28, 0x00, 0x00, 0x00,
  0x5c, 0x00, 0x00, 0x00, 0x0e, 0x00, 0x00, 0x00, 0x00, 0x00, 0x00, 0x09,
  0x74, 0x00, 0x00, 0x00, 0x04, 0x00, 0x00, 0x00, 0xff, 0xff, 0xff, 0xff,
  0x18, 0x00, 0x00, 0x00, 0x14, 0x00, 0x00, 0x00, 0x08, 0x00, 0x00, 0x00,
  0xf4, 0xf6, 0xff, 0xff, 0x10, 0x00, 0x00, 0x00, 0x18, 0x00, 0x00, 0x00,
  0x1c, 0x00, 0x00, 0x00, 0x20, 0x00, 0x00, 0x00, 0x01, 0x00, 0x00, 0x00,
  0x80, 0xff, 0xff, 0xff, 0xff, 0xff, 0xff, 0xff, 0x01, 0x00, 0x00, 0x00,
  0xba, 0x11, 0xff, 0x3f, 0x01, 0x00, 0x00, 0x00, 0xa8, 0x12, 0xfe, 0x43,
  0x01, 0x00, 0x00, 0x00, 0x00, 0x00, 0x00, 0x00, 0x1f, 0x00, 0x00, 0x00,
  0x73, 0x74, 0x75, 0x64, 0x65, 0x6e, 0x74, 0x2f, 0x6d, 0x61, 0x78, 0x5f,
  0x70, 0x6f, 0x6f, 0x6c, 0x69, 0x6e, 0x67, 0x32, 0x64, 0x5f, 0x32, 0x2f,
  0x4d, 0x61, 0x78, 0x50, 0x6f, 0x6f, 0x6c, 0x00, 0x04, 0x00, 0x00, 0x00,
  0x01, 0x00, 0x00, 0x00, 0x18, 0x00, 0x00, 0x00, 0x14, 0x00, 0x00, 0x00,
  0x08, 0x00, 0x00, 0x00, 0xa8, 0xf7, 0xff, 0xff, 0x18, 0x00, 0x00, 0x00,
  0x28, 0x00, 0x00, 0x00, 0x5c, 0x00, 0x00, 0x00, 0x0d, 0x00, 0x00, 0x00,
  0x00, 0x00, 0x00, 0x09, 0xe4, 0x00, 0x00, 0x00, 0x04, 0x00, 0x00, 0x00,
  0xff, 0xff, 0xff, 0xff, 0x31, 0x00, 0x00, 0x00, 0x28, 0x00, 0x00, 0x00,
  0x08, 0x00, 0x00, 0x00, 0x94, 0xf7, 0xff, 0xff, 0x10, 0x00, 0x00, 0x00,
  0x18, 0x00, 0x00, 0x00, 0x1c, 0x00, 0x00, 0x00, 0x20, 0x00, 0x00, 0x00,
  0x01, 0x00, 0x00, 0x00, 0x80, 0xff, 0xff, 0xff, 0xff, 0xff, 0xff, 0xff,
  0x01, 0x00, 0x00, 0x00, 0xba, 0x11, 0xff, 0x3f, 0x01, 0x00, 0x00, 0x00,
  0xa8, 0x12, 0xfe, 0x43, 0x01, 0x00, 0x00, 0x00, 0x00, 0x00, 0x00, 0x00,
  0x8f, 0x00, 0x00, 0x00, 0x73, 0x74, 0x75, 0x64, 0x65, 0x6e, 0x74, 0x2f,
  0x63, 0x6f, 0x6e, 0x76, 0x32, 0x64, 0x5f, 0x33, 0x2f, 0x52, 0x65, 0x6c,
  0x75, 0x3b, 0x73, 0x74, 0x75, 0x64, 0x65, 0x6e, 0x74, 0x2f, 0x63, 0x6f,
  0x6e, 0x76, 0x32, 0x64, 0x5f, 0x33, 0x2f, 0x42, 0x69, 0x61, 0x73, 0x41,
  0x64, 0x64, 0x3b, 0x73, 0x74, 0x75, 0x64, 0x65, 0x6e, 0x74, 0x2f, 0x63,
  0x6f, 0x6e, 0x76, 0x32, 0x64, 0x5f, 0x34, 0x2f, 0x43, 0x6f, 0x6e, 0x76,
  0x32, 0x44, 0x3b, 0x73, 0x74, 0x75, 0x64, 0x65, 0x6e, 0x74, 0x2f, 0x63,
  0x6f, 0x6e, 0x76, 0x32, 0x64, 0x5f, 0x33, 0x2f, 0x43, 0x6f, 0x6e, 0x76,
  0x32, 0x44, 0x3b, 0x73, 0x74, 0x75, 0x64, 0x65, 0x6e, 0x74, 0x2f, 0x63,
  0x6f, 0x6e, 0x76, 0x32, 0x64, 0x5f, 0x33, 0x2f, 0x42, 0x69, 0x61, 0x73,
  0x41, 0x64, 0x64, 0x2f, 0x52, 0x65, 0x61, 0x64, 0x56, 0x61, 0x72, 0x69,
  0x61, 0x62, 0x6c, 0x65, 0x4f, 0x70, 0x2f, 0x72, 0x65, 0x73, 0x6f, 0x75,
  0x72, 0x63, 0x65, 0x00, 0x04, 0x00, 0x00, 0x00, 0x01, 0x00, 0x00, 0x00,
  0x31, 0x00, 0x00, 0x00, 0x28, 0x00, 0x00, 0x00, 0x08, 0x00, 0x00, 0x00,
  0xa2, 0xf9, 0xff, 0xff, 0x14, 0x00, 0x00, 0x00, 0xd8, 0x00, 0x00, 0x00,
  0x0c, 0x00, 0x00, 0x00, 0x00, 0x00, 0x00, 0x09, 0xe8, 0x00, 0x00, 0x00,
  0x8c, 0xf8, 0xff, 0xff, 0x10, 0x00, 0x00, 0x00, 0x54, 0x00, 0x00, 0x00,
  0x74, 0x00, 0x00, 0x00, 0x94, 0x00, 0x00, 0x00, 0x08, 0x00, 0x00, 0x00,
  0x00, 0x00, 0x00, 0x00, 0x00, 0x00, 0x00, 0x00, 0x00, 0x00, 0x00, 0x00,
  0x00, 0x00, 0x00, 0x00, 0x00, 0x00, 0x00, 0x00, 0x00, 0x00, 0x00, 0x00,
  0x00, 0x00, 0x00, 0x00, 0x00, 0x00, 0x00, 0x00, 0x00, 0x00, 0x00, 0x00,
  0x00, 0x00, 0x00, 0x00, 0x00, 0x00, 0x00, 0x00, 0x00, 0x00, 0x00, 0x00,
  0x00, 0x00, 0x00, 0x00, 0x00, 0x00, 0x00, 0x00, 0x00, 0x00, 0x00, 0x00,
  0x00, 0x00, 0x00, 0x00, 0x00, 0x00, 0x00, 0x00, 0x08, 0x00, 0x00, 0x00,
  0x7b, 0x19, 0xea, 0x3a, 0xfc, 0x2b, 0xdb, 0x3a, 0x36, 0x53, 0x02, 0x3b,
  0xe9, 0xa1, 0xe6, 0x3a, 0x0d, 0x75, 0xe3, 0x3a, 0x6d, 0xcc, 0xf3, 0x3a,
  0xb3, 0x29, 0xe9, 0x3a, 0x3b, 0x66, 0xe1, 0x3a, 0x08, 0x00, 0x00, 0x00,
  0xc7, 0x23, 0x60, 0x3e, 0xa4, 0x75, 0x59, 0x3e, 0x10, 0x65, 0x6e, 0x3e,
  0xa5, 0xd4, 0x64, 0x3e, 0xcd, 0x04, 0x54, 0x3e, 0x2d, 0x7c, 0x5e, 0x3e,
  0xc4, 0x43, 0x64, 0x3e, 0x6f, 0xa3, 0x5f, 0x3e, 0x08, 0x00, 0x00, 0x00,
  0x48, 0x45, 0x68, 0xbe, 0x29, 0x31, 0x4e, 0xbe, 0x90, 0x4e, 0x81, 0xbe,
  0x14, 0x70, 0x61, 0xbe, 0x23, 0xae, 0x61, 0xbe, 0xd4, 0xe4, 0x71, 0xbe,
  0x60, 0x57, 0x67, 0xbe, 0xf4, 0x4d, 0x40, 0xbe, 0x17, 0x00, 0x00, 0x00,
  0x73, 0x74, 0x75, 0x64, 0x65, 0x6e, 0x74, 0x2f, 0x63, 0x6f, 0x6e, 0x76,
  0x32, 0x64, 0x5f, 0x34, 0x2f, 0x43, 0x6f, 0x6e, 0x76, 0x32, 0x44, 0x00,
  0x04, 0x00, 0x00, 0x00, 0x08, 0x00, 0x00, 0x00, 0x03, 0x00, 0x00, 0x00,
  0x03, 0x00, 0x00, 0x00, 0x08, 0x00, 0x00, 0x00, 0xb2, 0xfa, 0xff, 0xff,
  0x14, 0x00, 0x00, 0x00, 0xd8, 0x00, 0x00, 0x00, 0x0b, 0x00, 0x00, 0x00,
  0x00, 0x00, 0x00, 0x09, 0xe8, 0x00, 0x00, 0x00, 0x9c, 0xf9, 0xff, 0xff,
  0x10, 0x00, 0x00, 0x00, 0x54, 0x00, 0x00, 0x00, 0x74, 0x00, 0x00, 0x00,
  0x94, 0x00, 0x00, 0x00, 0x08, 0x00, 0x00, 0x00, 0x00, 0x00, 0x00, 0x00,
  0x00, 0x00, 0x00, 0x00, 0x00, 0x00, 0x00, 0x00, 0x00, 0x00, 0x00, 0x00,
  0x00, 0x00, 0x00, 0x00, 0x00, 0x00, 0x00, 0x00, 0x00, 0x00, 0x00, 0x00,
  0x00, 0x00, 0x00, 0x00, 0x00, 0x00, 0x00, 0x00, 0x00, 0x00, 0x00, 0x00,
  0x00, 0x00, 0x00, 0x00, 0x00, 0x00, 0x00, 0x00, 0x00, 0x00, 0x00, 0x00,
  0x00, 0x00, 0x00, 0x00, 0x00, 0x00, 0x00, 0x00, 0x00, 0x00, 0x00, 0x00,
  0x00, 0x00, 0x00, 0x00, 0x08, 0x00, 0x00, 0x00, 0xaa, 0x65, 0xf0, 0x3a,
  0x8b, 0x8d, 0x02, 0x3b, 0x6d, 0x74, 0x11, 0x3b, 0xe9, 0xa4, 0x04, 0x3b,
  0xbf, 0xfb, 0x0d, 0x3b, 0x88, 0xd7, 0xc1, 0x3a, 0x85, 0x54, 0x12, 0x3b,
  0x2e, 0xdf, 0x03, 0x3b, 0x08, 0x00, 0x00, 0x00, 0xdf, 0x84, 0x6e, 0x3e,
  0x70, 0x88, 0x81, 0x3e, 0xba, 0xa8, 0x69, 0x3e, 0x9f, 0x9b, 0x83, 0x3e,
  0xe9, 0x2a, 0x86, 0x3e, 0xd9, 0x53, 0x40, 0x3e, 0xdc, 0x2f, 0x91, 0x3e,
  0xc4, 0xd3, 0x64, 0x3e, 0x08, 0x00, 0x00, 0x00, 0x44, 0x15, 0x4c, 0xbe,
  0x0d, 0x32, 0x7a, 0xbe, 0x84, 0x51, 0x90, 0xbe, 0x0c, 0xb8, 0x7f, 0xbe,
  0xc8, 0xdf, 0x8c, 0xbe, 0xcf, 0xc0, 0x88, 0xbd, 0xaf, 0xdf, 0x8b, 0xbd,
  0x70, 0xd7, 0x82, 0xbe, 0x17, 0x00, 0x00, 0x00, 0x73, 0x74, 0x75, 0x64,
  0x65, 0x6e, 0x74, 0x2f, 0x63, 0x6f, 0x6e, 0x76, 0x32, 0x64, 0x5f, 0x33,
  0x2f, 0x43, 0x6f, 0x6e, 0x76, 0x32, 0x44, 0x00, 0x04, 0x00, 0x00, 0x00,
  0x08, 0x00, 0x00, 0x00, 0x03, 0x00, 0x00, 0x00, 0x03, 0x00, 0x00, 0x00,
  0x01, 0x00, 0x00, 0x00, 0xc2, 0xfb, 0xff, 0xff, 0x14, 0x00, 0x00, 0x00,
  0x48, 0x00, 0x00, 0x00, 0x0a, 0x00, 0x00, 0x00, 0x00, 0x00, 0x00, 0x09,
  0x58, 0x00, 0x00, 0x00, 0xac, 0xfa, 0xff, 0xff, 0x10, 0x00, 0x00, 0x00,
  0x18, 0x00, 0x00, 0x00, 0x1c, 0x00, 0x00, 0x00, 0x20, 0x00, 0x00, 0x00,
  0x01, 0x00, 0x00, 0x00, 0x00, 0x00, 0x00, 0x00, 0x00, 0x00, 0x00, 0x00,
  0x01, 0x00, 0x00, 0x00, 0xee, 0xef, 0x8e, 0x3a, 0x01, 0x00, 0x00, 0x00,
  0x0e, 0xd2, 0x0d, 0x3e, 0x01, 0x00, 0x00, 0x00, 0x3a, 0x92, 0x05, 0xbe,
  0x16, 0x00, 0x00, 0x00, 0x73, 0x74, 0x75, 0x64, 0x65, 0x6e, 0x74, 0x2f,
  0x64, 0x65, 0x6e, 0x73, 0x65, 0x5f, 0x32, 0x2f, 0x4d, 0x61, 0x74, 0x4d,
  0x75, 0x6c, 0x00, 0x00, 0x02, 0x00, 0x00, 0x00, 0x04, 0x00, 0x00, 0x00,
  0xc0, 0x03, 0x00, 0x00, 0x3a, 0xfc, 0xff, 0xff, 0x14, 0x00, 0x00, 0x00,
  0x4c, 0x00, 0x00, 0x00, 0x09, 0x00, 0x00, 0x00, 0x00, 0x00, 0x00, 0x09,
  0x74, 0x00, 0x00, 0x00, 0x24, 0xfb, 0xff, 0xff, 0x10, 0x00, 0x00, 0x00,
  0x1c, 0x00, 0x00, 0x00, 0x20, 0x00, 0x00, 0x00, 0x24, 0x00, 0x00, 0x00,
  0x01, 0x00, 0x00, 0x00, 0x00, 0x00, 0x00, 0x00, 0x00, 0x00, 0x00, 0x00,
  0x00, 0x00, 0x00, 0x00, 0x01, 0x00, 0x00, 0x00, 0xdf, 0xc3, 0x1e, 0x3c,
  0x01, 0x00, 0x00, 0x00, 0x57, 0x86, 0x9d, 0x3f, 0x01, 0x00, 0x00, 0x00,
  0x5a, 0x94, 0x75, 0x3f, 0x2f, 0x00, 0x00, 0x00, 0x73, 0x74, 0x75, 0x64,
  0x65, 0x6e, 0x74, 0x2f, 0x62, 0x61, 0x74, 0x63, 0x68, 0x5f, 0x6e, 0x6f,
  0x72, 0x6d, 0x61, 0x6c, 0x69, 0x7a, 0x61, 0x74, 0x69, 0x6f, 0x6e, 0x5f,
  0x33, 0x2f, 0x46, 0x75, 0x73, 0x65, 0x64, 0x42, 0x61, 0x74, 0x63, 0x68,
  0x4e, 0x6f, 0x72, 0x6d, 0x56, 0x33, 0x31, 0x00, 0x01, 0x00, 0x00, 0x00,
  0x08, 0x00, 0x00, 0x00, 0xca, 0xfc, 0xff, 0xff, 0x14, 0x00, 0x00, 0x00,
  0x4c, 0x00, 0x00, 0x00, 0x08, 0x00, 0x00, 0x00, 0x00, 0x00, 0x00, 0x09,
  0x74, 0x00, 0x00, 0x00, 0xb4, 0xfb, 0xff, 0xff, 0x10, 0x00, 0x00, 0x00,
  0x1c, 0x00, 0x00, 0x00, 0x20, 0x00, 0x00, 0x00, 0x24, 0x00, 0x00, 0x00,
  0x01, 0x00, 0x00, 0x00, 0x00, 0x00, 0x00, 0x00, 0x00, 0x00, 0x00, 0x00,
  0x00, 0x00, 0x00, 0x00, 0x01, 0x00, 0x00, 0x00, 0xee, 0xd6, 0xe4, 0x3b,
  0x01, 0x00, 0x00, 0x00, 0xb3, 0xd1, 0x09, 0xbf, 0x01, 0x00, 0x00, 0x00,
  0x40, 0x0d, 0x63, 0xbf, 0x2e, 0x00, 0x00, 0x00, 0x73, 0x74, 0x75, 0x64,
  0x65, 0x6e, 0x74, 0x2f, 0x62, 0x61, 0x74, 0x63, 0x68, 0x5f, 0x6e, 0x6f,
  0x72, 0x6d, 0x61, 0x6c, 0x69, 0x7a, 0x61, 0x74, 0x69, 0x6f, 0x6e, 0x5f,
  0x33, 0x2f, 0x46, 0x75, 0x73, 0x65, 0x64, 0x42, 0x61, 0x74, 0x63, 0x68,
  0x4e, 0x6f, 0x72, 0x6d, 0x56, 0x33, 0x00, 0x00, 0x01, 0x00, 0x00, 0x00,
  0x08, 0x00, 0x00, 0x00, 0x5a, 0xfd, 0xff, 0xff, 0x14, 0x00, 0x00, 0x00,
  0x4c, 0x00, 0x00, 0x00, 0x07, 0x00, 0x00, 0x00, 0x00, 0x00, 0x00, 0x09,
  0x74, 0x00, 0x00, 0x00, 0x44, 0xfc, 0xff, 0xff, 0x10, 0x00, 0x00, 0x00,
  0x1c, 0x00, 0x00, 0x00, 0x20, 0x00, 0x00, 0x00, 0x24, 0x00, 0x00, 0x00,
  0x01, 0x00, 0x00, 0x00, 0x00, 0x00, 0x00, 0x00, 0x00, 0x00, 0x00, 0x00,
  0x00, 0x00, 0x00, 0x00, 0x01, 0x00, 0x00, 0x00, 0x5c, 0xda, 0x08, 0x3a,
  0x01, 0x00, 0x00, 0x00, 0xa7, 0xc8, 0x87, 0x3d, 0x01, 0x00, 0x00, 0x00,
  0x36, 0x46, 0xc6, 0x3b, 0x2f, 0x00, 0x00, 0x00, 0x73, 0x74, 0x75, 0x64,
  0x65, 0x6e, 0x74, 0x2f, 0x62, 0x61, 0x74, 0x63, 0x68, 0x5f, 0x6e, 0x6f,
  0x72, 0x6d, 0x61, 0x6c, 0x69, 0x7a, 0x61, 0x74, 0x69, 0x6f, 0x6e, 0x5f,
  0x32, 0x2f, 0x46, 0x75, 0x73, 0x65, 0x64, 0x42, 0x61, 0x74, 0x63, 0x68,
  0x4e, 0x6f, 0x72, 0x6d, 0x56, 0x33, 0x31, 0x00, 0x01, 0x00, 0x00, 0x00,
  0x08, 0x00, 0x00, 0x00, 0xea, 0xfd, 0xff, 0xff, 0x14, 0x00, 0x00, 0x00,
  0x48, 0x00, 0x00, 0x00, 0x06, 0x00, 0x00, 0x00, 0x00, 0x00, 0x00, 0x09,
  0x70, 0x00, 0x00, 0x00, 0xd4, 0xfc, 0xff, 0xff, 0x10, 0x00, 0x00, 0x00,
  0x18, 0x00, 0x00, 0x00, 0x1c, 0x00, 0x00, 0x00, 0x20, 0x00, 0x00, 0x00,
  0x01, 0x00, 0x00, 0x00, 0x00, 0x00, 0x00, 0x00, 0x00, 0x00, 0x00, 0x00,
  0x01, 0x00, 0x00, 0x00, 0x6c, 0x84, 0x10, 0x3c, 0x01, 0x00, 0x00, 0x00,
  0x27, 0x2f, 0x49, 0xbe, 0x01, 0x00, 0x00, 0x00, 0x63, 0x63, 0x8f, 0xbf,
  0x2e, 0x00, 0x00, 0x00, 0x73, 0x74, 0x75, 0x64, 0x65, 0x6e, 0x74, 0x2f,
  0x62, 0x61, 0x74, 0x63, 0x68, 0x5f, 0x6e, 0x6f, 0x72, 0x6d, 0x61, 0x6c,
  0x69, 0x7a, 0x61, 0x74, 0x69, 0x6f, 0x6e, 0x5f, 0x32, 0x2f, 0x46, 0x75,
  0x73, 0x65, 0x64, 0x42, 0x61, 0x74, 0x63, 0x68, 0x4e, 0x6f, 0x72, 0x6d,
  0x56, 0x33, 0x00, 0x00, 0x01, 0x00, 0x00, 0x00, 0x08, 0x00, 0x00, 0x00,
  0x76, 0xfe, 0xff, 0xff, 0x18, 0x00, 0x00, 0x00, 0x18, 0x00, 0x00, 0x00,
  0x05, 0x00, 0x00, 0x00, 0x00, 0x00, 0x00, 0x02, 0x28, 0x00, 0x00, 0x00,
  0x04, 0x00, 0x04, 0x00, 0x04, 0x00, 0x00, 0x00, 0x17, 0x00, 0x00, 0x00,
  0x73, 0x74, 0x75, 0x64, 0x65, 0x6e, 0x74, 0x2f, 0x66, 0x6c, 0x61, 0x74,
  0x74, 0x65, 0x6e, 0x5f, 0x31, 0x2f, 0x43, 0x6f, 0x6e, 0x73, 0x74, 0x00,
  0x01, 0x00, 0x00, 0x00, 0x02, 0x00, 0x00, 0x00, 0xba, 0xfe, 0xff, 0xff,
  0x14, 0x00, 0x00, 0x00, 0x34, 0x00, 0x00, 0x00, 0x04, 0x00, 0x00, 0x00,
  0x00, 0x00, 0x00, 0x02, 0x5c, 0x00, 0x00, 0x00, 0xac, 0xfe, 0xff, 0xff,
  0x08, 0x00, 0x00, 0x00, 0x14, 0x00, 0x00, 0x00, 0x01, 0x00, 0x00, 0x00,
  0x00, 0x00, 0x00, 0x00, 0x00, 0x00, 0x00, 0x00, 0x00, 0x00, 0x00, 0x00,
  0x01, 0x00, 0x00, 0x00, 0x5a, 0x25, 0xeb, 0x37, 0x2f, 0x00, 0x00, 0x00,
  0x73, 0x74, 0x75, 0x64, 0x65, 0x6e, 0x74, 0x2f, 0x64, 0x65, 0x6e, 0x73,
  0x65, 0x5f, 0x32, 0x2f, 0x42, 0x69, 0x61, 0x73, 0x41, 0x64, 0x64, 0x2f,
  0x52, 0x65, 0x61, 0x64, 0x56, 0x61, 0x72, 0x69, 0x61, 0x62, 0x6c, 0x65,
  0x4f, 0x70, 0x2f, 0x72, 0x65, 0x73, 0x6f, 0x75, 0x72, 0x63, 0x65, 0x00,
  0x01, 0x00, 0x00, 0x00, 0x04, 0x00, 0x00, 0x00, 0x32, 0xff, 0xff, 0xff,
  0x14, 0x00, 0x00, 0x00, 0x84, 0x00, 0x00, 0x00, 0x03, 0x00, 0x00, 0x00,
  0x00, 0x00, 0x00, 0x02, 0xb0, 0x00, 0x00, 0x00, 0x24, 0xff, 0xff, 0xff,
  0x08, 0x00, 0x00, 0x00, 0x48, 0x00, 0x00, 0x00, 0x08, 0x00, 0x00, 0x00,
  0x00, 0x00, 0x00, 0x00, 0x00, 0x00, 0x00, 0x00, 0x00, 0x00, 0x00, 0x00,
  0x00, 0x00, 0x00, 0x00, 0x00, 0x00, 0x00, 0x00, 0x00, 0x00, 0x00, 0x00,
  0x00, 0x00, 0x00, 0x00, 0x00, 0x00, 0x00, 0x00, 0x00, 0x00, 0x00, 0x00,
  0x00, 0x00, 0x00, 0x00, 0x00, 0x00, 0x00, 0x00, 0x00, 0x00, 0x00, 0x00,
  0x00, 0x00, 0x00, 0x00, 0x00, 0x00, 0x00, 0x00, 0x00, 0x00, 0x00, 0x00,
  0x00, 0x00, 0x00, 0x00, 0x08, 0x00, 0x00, 0x00, 0xf1, 0x96, 0xbe, 0x38,
  0xb6, 0x6f, 0xb2, 0x38, 0x99, 0x34, 0xd4, 0x38, 0x56, 0xc4, 0xbb, 0x38,
  0x8e, 0x2e, 0xb9, 0x38, 0x68, 0x7c, 0xc6, 0x38, 0xba, 0xd3, 0xbd, 0x38,
  0xa7, 0x81, 0xb7, 0x38, 0x30, 0x00, 0x00, 0x00, 0x73, 0x74, 0x75, 0x64,
  0x65, 0x6e, 0x74, 0x2f, 0x63, 0x6f, 0x6e, 0x76, 0x32, 0x64, 0x5f, 0x34,
  0x2f, 0x42, 0x69, 0x61, 0x73, 0x41, 0x64, 0x64, 0x2f, 0x52, 0x65, 0x61,
  0x64, 0x56, 0x61, 0x72, 0x69, 0x61, 0x62, 0x6c, 0x65, 0x4f, 0x70, 0x2f,
  0x72, 0x65, 0x73, 0x6f, 0x75, 0x72, 0x63, 0x65, 0x00, 0x00, 0x00, 0x00,
  0x01, 0x00, 0x00, 0x00, 0x08, 0x00, 0x00, 0x00, 0x00, 0x00, 0x0e, 0x00,
  0x18, 0x00, 0x14, 0x00, 0x13, 0x00, 0x0c, 0x00, 0x08, 0x00, 0x04, 0x00,
  0x0e, 0x00, 0x00, 0x00, 0x20, 0x00, 0x00, 0x00, 0x94, 0x00, 0x00, 0x00,
  0x02, 0x00, 0x00, 0x00, 0x00, 0x00, 0x00, 0x02, 0xc0, 0x00, 0x00, 0x00,
  0x0c, 0x00, 0x0c, 0x00, 0x00, 0x00, 0x00, 0x00, 0x08, 0x00, 0x04, 0x00,
  0x0c, 0x00, 0x00, 0x00, 0x08, 0x00, 0x00, 0x00, 0x4c, 0x00, 0x00, 0x00,
  0x08, 0x00, 0x00, 0x00, 0x00, 0x00, 0x00, 0x00, 0x00, 0x00, 0x00, 0x00,
  0x00, 0x00, 0x00, 0x00, 0x00, 0x00, 0x00, 0x00, 0x00, 0x00, 0x00, 0x00,
  0x00, 0x00, 0x00, 0x00, 0x00, 0x00, 0x00, 0x00, 0x00, 0x00, 0x00, 0x00,
  0x00, 0x00, 0x00, 0x00, 0x00, 0x00, 0x00, 0x00, 0x00, 0x00, 0x00, 0x00,
  0x00, 0x00, 0x00, 0x00, 0x00, 0x00, 0x00, 0x00, 0x00, 0x00, 0x00, 0x00,
  0x00, 0x00, 0x00, 0x00, 0x00, 0x00, 0x00, 0x00, 0x00, 0x00, 0x00, 0x00,
  0x08, 0x00, 0x00, 0x00, 0xd2, 0xa0, 0xa6, 0x3b, 0x6e, 0xfb, 0xb4, 0x3b,
  0xe8, 0xa3, 0xc9, 0x3b, 0x99, 0xe1, 0xb7, 0x3b, 0xf4, 0xd3, 0xc4, 0x3b,
  0xeb, 0x5b, 0x86, 0x3b, 0x90, 0xda, 0xca, 0x3b, 0x7d, 0xcf, 0xb6, 0x3b,
  0x30, 0x00, 0x00, 0x00, 0x73, 0x74, 0x75, 0x64, 0x65, 0x6e, 0x74, 0x2f,
  0x63, 0x6f, 0x6e, 0x76, 0x32, 0x64, 0x5f, 0x33, 0x2f, 0x42, 0x69, 0x61,
  0x73, 0x41, 0x64, 0x64, 0x2f, 0x52, 0x65, 0x61, 0x64, 0x56, 0x61, 0x72,
  0x69, 0x61, 0x62, 0x6c, 0x65, 0x4f, 0x70, 0x2f, 0x72, 0x65, 0x73, 0x6f,
  0x75, 0x72, 0x63, 0x65, 0x00, 0x00, 0x00, 0x00, 0x01, 0x00, 0x00, 0x00,
  0x08, 0x00, 0x00, 0x00, 0x14, 0x00, 0x1c, 0x00, 0x18, 0x00, 0x17, 0x00,
  0x10, 0x00, 0x0c, 0x00, 0x08, 0x00, 0x00, 0x00, 0x00, 0x00, 0x04, 0x00,
  0x14, 0x00, 0x00, 0x00, 0x18, 0x00, 0x00, 0x00, 0x34, 0x00, 0x00, 0x00,
  0x68, 0x00, 0x00, 0x00, 0x01, 0x00, 0x00, 0x00, 0x00, 0x00, 0x00, 0x09,
  0x70, 0x00, 0x00, 0x00, 0x04, 0x00, 0x00, 0x00, 0xff, 0xff, 0xff, 0xff,
  0x31, 0x00, 0x00, 0x00, 0x28, 0x00, 0x00, 0x00, 0x01, 0x00, 0x00, 0x00,
  0x0c, 0x00, 0x14, 0x00, 0x10, 0x00, 0x0c, 0x00, 0x08, 0x00, 0x04, 0x00,
  0x0c, 0x00, 0x00, 0x00, 0x10, 0x00, 0x00, 0x00, 0x18, 0x00, 0x00, 0x00,
  0x1c, 0x00, 0x00, 0x00, 0x20, 0x00, 0x00, 0x00, 0x01, 0x00, 0x00, 0x00,
  0x80, 0xff, 0xff, 0xff, 0xff, 0xff, 0xff, 0xff, 0x01, 0x00, 0x00, 0x00,
  0x71, 0x71, 0x31, 0x40, 0x01, 0x00, 0x00, 0x00, 0x00, 0xc0, 0x30, 0x44,
  0x01, 0x00, 0x00, 0x00, 0x00, 0x00, 0x00, 0x00, 0x0c, 0x00, 0x00, 0x00,
  0x69, 0x6e, 0x70, 0x75, 0x74, 0x5f, 0x32, 0x5f, 0x69, 0x6e, 0x74, 0x38,
  0x00, 0x00, 0x00, 0x00, 0x04, 0x00, 0x00, 0x00, 0x01, 0x00, 0x00, 0x00,
  0x31, 0x00, 0x00, 0x00, 0x28, 0x00, 0x00, 0x00, 0x01, 0x00, 0x00, 0x00,
  0x08, 0x00, 0x00, 0x00, 0xac, 0x00, 0x00, 0x00, 0x8c, 0x00, 0x00, 0x00,
  0x78, 0x00, 0x00, 0x00, 0x6c, 0x00, 0x00, 0x00, 0x54, 0x00, 0x00, 0x00,
  0x34, 0x00, 0x00, 0x00, 0x24, 0x00, 0x00, 0x00, 0x04, 0x00, 0x00, 0x00,
  0x80, 0xff, 0xff, 0xff, 0x06, 0x00, 0x00, 0x00, 0x02, 0x00, 0x00, 0x00,
  0x00, 0x00, 0x00, 0x06, 0x0c, 0x00, 0x0c, 0x00, 0x0b, 0x00, 0x00, 0x00,
  0x00, 0x00, 0x04, 0x00, 0x0c, 0x00, 0x00, 0x00, 0x72, 0x00, 0x00, 0x00,
  0x00, 0x00, 0x00, 0x72, 0xa8, 0xff, 0xff, 0xff, 0x09, 0x00, 0x00, 0x00,
  0x04, 0x00, 0x00, 0x00, 0x00, 0x00, 0x00, 0x09, 0x0c, 0x00, 0x0a, 0x00,
  0x09, 0x00, 0x00, 0x00, 0x00, 0x00, 0x04, 0x00, 0x0c, 0x00, 0x00, 0x00,
  0x16, 0x00, 0x00, 0x00, 0x00, 0x16, 0x0a, 0x00, 0x08, 0x00, 0x00, 0x00,
  0x00, 0x00, 0x04, 0x00, 0x0a, 0x00, 0x00, 0x00, 0x02, 0x00, 0x00, 0x00,
  0xe0, 0xff, 0xff, 0xff, 0x12, 0x00, 0x00, 0x00, 0x02, 0x00, 0x00, 0x00,
  0x00, 0x00, 0x00, 0x12, 0xf0, 0xff, 0xff, 0xff, 0x11, 0x00, 0x00, 0x00,
  0x02, 0x00, 0x00, 0x00, 0x00, 0x00, 0x00, 0x11, 0x0c, 0x00, 0x10, 0x00,
  0x0f, 0x00, 0x00, 0x00, 0x08, 0x00, 0x04, 0x00, 0x0c, 0x00, 0x00, 0x00,
  0x03, 0x00, 0x00, 0x00, 0x03, 0x00, 0x00, 0x00, 0x00, 0x00, 0x00, 0x03};
const int g_model_len = 9912;
